#version: 0.2
e r
e n
e n</w>
i n
c h
a n
e r</w>
t h
u n
t i
e s
o n
e i
l i
d i
s t
a r
o r
th e</w>
a l
e l
s ch
r e
s i
e s</w>
r o
d er</w>
c h</w>
i n</w>
di e</w>
o n</w>
e in
a t
a u
r i
w i
d e
an d</w>
un d</w>
o f</w>
r a
t o</w>
a s</w>
a n</w>
e d</w>
in g</w>
o m
u r
a s
g e
v er
en ,</w>
d en</w>
a ti
a t</w>
b e
i t
a l</w>
o l
i s
en t
l e
u s
i s</w>
d er
a b
t er
un g</w>
t en</w>
en .</w>
h r
o r</w>
un g
u l
p o
a m
t e</w>
z u</w>
t e
e c
g i
e m
i t</w>
i l
n i
e h
l o
n o
th at</w>
f ü
e t
li ch
en t</w>
t ,</w>
g e</w>
p ro
v e</w>
a c
f f
l y</w>
l e</w>
ati on
ch t</w>
sch en</w>
v on</w>
o u
T h
v i
ein e</w>
d e</w>
s e</w>
s u
c o
ti on
g en
w er
z u
w h
n e
g en</w>
m a
r es
e d
c i
s p
b er
s ,</w>
a f
a h
a p
a r</w>
t h</w>
an d
f or
D i
ä n
’ s</w>
c on
I n
i g
r u
in g
w ei
d es</w>
f or</w>
s e
V er
po li
s t</w>
u ro
o p
R e
fü r</w>
er i
as s</w>
t .</w>
a ch
s h
d as</w>
au f</w>
r ei
i st
e x
c om
c e</w>
s .</w>
wi r
si ch</w>
ei n</w>
ei t</w>
is t</w>
es t
d ass</w>
a d
S t
al s</w>
c k
m o
u t
h a
ti on</w>
ung en</w>
ar e</w>
el l
sch af
li ch</w>
a g
A n
t er</w>
b e</w>
a li
a k
z i
u t</w>
uro p
i r
i m
u m</w>
e m</w>
e ,</w>
h in
u m
ni cht</w>
b er</w>
de m</w>
ati on</w>
sch e</w>
al l
s o
i m</w>
w or
Th e</w>
s ti
m it</w>
t s</w>
ul d</w>
U n
di es
Di e</w>
d u
poli ti
s o</w>
y ,</w>
g es
t u
at e</w>
E urop
t s
no t</w>
ol l
a hr
r an
i li
wi th</w>
d en
s in
m en</w>
q u
au s
w o
ä r
b y</w>
b es
ü r
ein er</w>
ter n
w e
S ch
l l</w>
on om
w as</w>
t z
l ei
2 0
t ri
co un
g o
d a
t ra
ung s
si e</w>
h as</w>
s en</w>
er e</w>
f i
ha ve</w>
e .</w>
in an
p or
l a
w en
wi e</w>
m ent</w>
m en
i hr
C hin
m or
I n</w>
k an
t schaf
it s</w>
e b
E n
t en
m an
p ar
es ,</w>
g ro
b ei
m ent
w ar
e v
p er
st en</w>
ec onom
er ung</w>
wi ll</w>
e y</w>
s en
ein en</w>
g h
ö n
P ro
ar k
m e
an g
d ur
ro m</w>
r ä
au f
c al</w>
th er</w>
un d
h o
t o
E in
ti m
f rom</w>
p e
h al
t y</w>
ei r</w>
E r
ön n
A u
m in
k önn
y .</w>
a ch</w>
A r
h ab
i schen</w>
A m
ü ber</w>
th eir</w>
U S
n u
ti g
e g
au ch</w>
an k
r en
lich en</w>
p ri
e l</w>
et z
p l
lo b
ch t
al l</w>
mor e</w>
es .</w>
d ,</w>
ou t</w>
s el
r at
1 9
Re gi
e ar
an der
d o
g an
h n
J ahr
on e</w>
i ch</w>
k om
au s</w>
Am eri
u b
c an</w>
lich e</w>
be i</w>
es e</w>
d ar
ver n
t a
g er
c re
es s</w>
i c</w>
v or
ge b
o der</w>
ü ber
h at</w>
e f
u s</w>
s er
e p
ä hr
g r
d .</w>
g lob
h er
al ly</w>
t ei
wo uld</w>
sin d</w>
a at
der n</w>
t r
e k
e u
a ,</w>
m e</w>
ein em</w>
eh r</w>
m us
l u
A us
ü n
il li
th is</w>
W el
t ur
t ed</w>
b le
th ey</w>
h ei
go vern
dur ch</w>
re c
i ch
ch en</w>
for m
er s</w>
fü hr
en d</w>
si on
b o
o ff
B ut</w>
ili t
el y</w>
s y
si on</w>
m p
w ur
coun tri
w a
K on
k eit</w>
f inan
s a
ar y</w>
th an</w>
b ut</w>
G es
b i
wer den</w>
R us
20 0
li e
wh ich</w>
En t
al e</w>
er n
ci al</w>
li k
wir d</w>
g ra
t en,</w>
as t</w>
d es
tern ation
ti v
zu r</w>
t or
i er
B e
i c
al en</w>
m an</w>
i sche</w>
sh o
p res
ä ch
f ol
an g</w>
L än
P o
m ark
ihr e</w>
g el
w ar</w>
wor l
ge h
e t</w>
d en.</w>
d ing</w>
i el
w el
p re
w ür
wir tschaf
f l
ü ck
no ch</w>
as s
v or</w>
m it
ab le</w>
ei g
v o
wi ck
U S</w>
o b
t ro
dies e</w>
d s</w>
m is
st ell
in ter
k ra
ö r
f t</w>
k on
h eit</w>
er n</w>
i d
l l
h ig
c ri
ne u
d en,</w>
t re
nu r</w>
in v
f ri
s ec
p en
I s
Europ e
r on
an c
e ff
m on
e ch
al so</w>
l in
W ir
b u
b r
te ,</w>
si ch
n ach</w>
in n
es t</w>
ti er
a in
it y</w>
am p
M en
k l
hab en</w>
h at
b en
an s</w>
c y</w>
Chin a</w>
ol o
s oll
g er</w>
f in
ri t
b t</w>
in ternation
P ar
G e
o ch</w>
v el
be t
h e</w>
wen n</w>
be en</w>
i e</w>
econom ic</w>
t ing</w>
o ther</w>
gro w
ü s
v er</w>
m ehr</w>
a ’s</w>
n ah
A b
M a
t en.</w>
st ru
de d</w>
sy st
un ter
es s
F inan
at ed</w>
g u
y ear
un der
ah l
s am
n ation
f ac
re gi
ed ,</w>
er ,</w>
l and</w>
är k
sti tu
a m</w>
K ri
ä t</w>
s ur
mo st</w>
ab er</w>
s om
ap it
Po li
t el
V or
ti ve</w>
tion s</w>
i h
ou s</w>
wi r</w>
D er</w>
du c
di s
p ub
St aat
i e
D as</w>
st at
m er</w>
le a
ö g
di g
Wir tschaf
an t</w>
M it
ar i
pub li
h l
v en</w>
on ly</w>
r el
ch e</w>
and el
m u
s ol
s on
I ra
ex p
C h
ein es</w>
a ff
lo w
tion en</w>
st ri
countri es</w>
f ra
f a
b ar
A l
l än
h is</w>
ne w</w>
w e</w>
ma k
politi cal</w>
b ank
US A</w>
n ,</w>
sho uld</w>
un i
ab out</w>
c es</w>
f o
vi el
po s
ges ch
ä l
an ce</w>
com e</w>
ü tz
t ung</w>
si d
ach st
m er
sch er</w>
man y</w>
com p
de mo
ge w
dies er</w>
s k
en s</w>
st e</w>
w o</w>
h e
g h</w>
g lei
glob al</w>
ge gen</w>
c ur
por t
wer e</w>
l on
su p
wick l
su ch</w>
un k
n o</w>
l ä
wh o</w>
wi schen</w>
E U</w>
in c
k ei
th o
pe op
F or
Finan z
o w
ru p
Poli ti
zu m</w>
p a
v en
st eh
no w</w>
20 1
wei se</w>
ung ,</w>
z wischen</w>
ist ,</w>
er en</w>
Z u
Rus si
ch an
h ar
f e
k e
rä sid
z ei
l ar
m üs
m em
te .</w>
en den</w>
l and
or d
a ge</w>
n .</w>
ati ve</w>
un ter</w>
c ra
G r
co uld</w>
le ,</w>
Europe an</w>
ti ge</w>
ti es</w>
de vel
ation s</w>
ti c
Ent wickl
Au f
ra l</w>
c au
h t</w>
i f</w>
ge m
c k</w>
J ap
E s</w>
s eine</w>
h l</w>
h ö
Ameri c
ing s</w>
' s</w>
ev en</w>
h en</w>
J ah
en de</w>
Ar bei
c ent
coun tr
wei ter
er t</w>
h er</w>
O b
z e</w>
Wel t</w>
le tz
S y
sch ei
de ut
er g
ti gen</w>
sch ein
w är
cre as
ö ß
f u
a si
olo gi
gro ß
il e</w>
gh t</w>
wirtschaf t
govern ment</w>
m s</w>
re s</w>
c le
s m
o ver
te t</w>
Th is</w>
t n
ti c</w>
e g</w>
s ein
b en</w>
an t
sh i
In di
re ch
devel op
t ak
min ist
S p
f ir
Un ter
wi e
or e
ur e</w>
finan cial</w>
Is ra
d am
v ol
in creas
po si
z en</w>
s etz
a st
wer den.</w>
der s</w>
wh en</w>
w er</w>
sch i
t in
schaf t</w>
l am
st and
wo hl</w>
em p
ell en</w>
i r</w>
us t</w>
el le</w>
h el
de c
a .</w>
d ung</w>
in i
S o
K o
rei ch
an k</w>
g re
wir k
P räsid
k ri
u p
m ög
kra ti
g est
en ce</w>
or i
ment s</w>
se ,</w>
th ese</w>
cau se</w>
A ber</w>
u p</w>
an ,</w>
at s
Men schen</w>
y ’s</w>
ou r</w>
D och</w>
qu i
v ing</w>
mus t</w>
Ü ber
f all
di es</w>
si g
ac c
en s
an i
inv est
le g
M e
U m
I t</w>
som e</w>
o d</w>
B er
l au
ff ent
M illi
m m
im p
wh at</w>
lie ß
in to</w>
U ni
Regi erung</w>
e gi
f er
c c
pro ble
wi ch
US -
Län der</w>
ing ,</w>
ma y</w>
s s
th ere</w>
D e
Regi er
gr öß
de m
worl d</w>
us am
a d</w>
d r
k o
ro u
th er
di ff
ähr end</w>
F ran
t ran
e -
F ü
ab ili
st ütz
ihr er</w>
ac k
for der
19 9
0 0</w>
L i
peop le</w>
an y</w>
f re
Jah r</w>
W achst
ge gen
m ilit
syst em
Un d</w>
be g
Jahr en</w>
ha d</w>
l ang
tern eh
ed .</w>
R i
it ed</w>
d o</w>
Pro ble
em o
an ti
am eri
si ve</w>
ac k</w>
fi c
g a
ig er</w>
ti g</w>
en n
ber ei
s ein</w>
kan n</w>
im mer</w>
In v
G er
st rat
ent s</w>
b le</w>
tei l
wi th
lik e</w>
k eine</w>
in s</w>
B ank
ch n
en c
k ur
M o
s ch</w>
v es</w>
mu ch</w>
politi schen</w>
cri si
ation ,</w>
h ol
res p
h än
N o
n is
ä tz
h ä
H au
k an</w>
de ,</w>
li m
kom men</w>
m ig
o hn
zi eh
il l
o f
du k
be cause</w>
m en,</w>
m un
in e</w>
el ec
l at
grow th</w>
k a</w>
s at
B es
o ver</w>
K re
ing .</w>
tion ,</w>
wor k
k en</w>
In ter
N ach
g ar
e urop
th re
g ab
wer den,</w>
an n
l ess</w>
ander en</w>
st aat
di c
t or</w>
m ei
y ang</w>
p h
L eb
r ü
ver y</w>
pro duc
L and
at ing</w>
pri v
lich er</w>
sel b
. ”</w>
at es</w>
d a</w>
E x
mark et
y p
po p
ag ain
u ri
b is</w>
at en</w>
W en
G el
) .</w>
ö ffent
D oll
si er
ö l
we en</w>
internation al</w>
ander e</w>
wur de</w>
Wirtschaf ts
könn te</w>
politi sche</w>
ge ,</w>
Europ a</w>
usam men
i d</w>
Rus s
su b
du stri
por t</w>
bet ween</w>
is m
D emo
j e
demo cra
G ro
tion .</w>
ei gen
g res
S ich
ameri kan
A si
p f
a u</w>
b il
z ur
fol g
c ar
r or
st än
st ,</w>
al le</w>
s einer</w>
h i
ou t
al ,</w>
äch lich</w>
ge f
) ,</w>
c an
h eu
l an
H er
Wel t
Sch ul
Ob am
regi on
st ar
in stitu
hei ts
ma ch
y ing</w>
c or
E U
ou gh</w>
li c
de .</w>
sp iel
inc lu
er hal
sch w
L and</w>
Un ited</w>
y s</w>
tho se</w>
poli cy</w>
v al
j ed
te u
F ra
europ ä
K om
b el
wel t
n or
ation .</w>
publi c</w>
W es
I m</w>
müs sen</w>
R es
l as
s or
en d
wi s
s ei
tion al</w>
bes ch
Wen n</w>
S ie</w>
ihr en</w>
eff ec
n ach
Un terneh
re ma
g ar</w>
po wer
Sich er
b or
son dern</w>
A fri
el l</w>
wa y</w>
ri s
es ti
i l</w>
lo s
B ei
d an</w>
i ge</w>
h um
T ei
nah men</w>
glei ch
d om
st ärk
no w
w a</w>
r au
on en</w>
o ur
könn en</w>
t wo</w>
c apit
viel e</w>
so ci
T ats
con tin
l y,</w>
con c
G re
uro z
stru c
b ein
z eh
j ec
Europ e</w>
G en
wür de</w>
lo y
bes te
dur ch
cle ar</w>
B o
t t
v ed</w>
ter n</w>
O r
Län dern</w>
w ahr
im port
again st</w>
zi er
Z ei
w ährend</w>
f e</w>
year s</w>
tim e</w>
er k
M in
resp on
A s</w>
Ges ch
sam e</w>
it e</w>
z ent
A k
st and</w>
do w
res ul
ist .</w>
A ra
u d
j en
m ul
ation en</w>
er gi
Jahr e</w>
Gro ß
B us
e li
r ate</w>
neu e</w>
id ent</w>
z un
b in
on g</w>
Fü hr
etz t</w>
mus s</w>
P res
b al
i ci
an n</w>
m en.</w>
wh ere</w>
ali t
sp ec
et t
o us
m al</w>
A f
on s</w>
for m</w>
de ed,</w>
ta in
th em
illi on</w>
sh al
Di ese</w>
ri ch
C on
letz ten</w>
t es</w>
er d
f en</w>
sch n
en g
wh ile</w>
selb st</w>
me di
de l</w>
cur r
pro vi
sch ließ
re d</w>
lich keit</w>
ent en</w>
vo m</w>
syst em</w>
ti schen</w>
on ,</w>
sp i
lo w</w>
gen er
S o</w>
Europ ä
vi el</w>
6 0
dies em</w>
ne ed</w>
m at
än der
ti al</w>
f is
af ter</w>
gi bt</w>
Ver ein
pop ul
fir st</w>
bes on
Mit g
M on
b lei
ma j
g en,</w>
ö s
ut z
un s</w>
ho w</w>
bo th</w>
st ra
chan ge</w>
u e</w>
z ahl
P al
W or
e w</w>
y a</w>
h ap
Ein e</w>
ung .</w>
ah l</w>
j ust</w>
po wer</w>
de b
mög lich
Arbei ts
ac e</w>
th rou
E in</w>
ä hl
d ra
den en</w>
st e
li er
politi k</w>
pro gra
b ri
ali z
i de
ni ch
le c
dam it</w>
ab ilit
W ei
f te</w>
h and
g t</w>
in es
n eh
y o
it ät</w>
fri sti
wei l</w>
as e</w>
at or
g ri
wen iger</w>
Politi k</w>
h ist
vol u
th em</w>
P ri
v e
mark et</w>
F or</w>
in s
t ru
op er
ung en,</w>
ohn e</w>
eig n</w>
V ol
b ili
st s</w>
d i</w>
le .</w>
ol d</w>
en en</w>
o b</w>
r in
i z
n at
erd ings</w>
we i</w>
econom y</w>
su cc
or t</w>
zur ück
da zu</w>
emp loy
rup p
C om
diff er
ar bei
em ent</w>
g ung</w>
Ameri can</w>
öl k
ar ly</w>
co ur
mak e</w>
ent ly</w>
z wei
sin d,</w>
in di
abili ty</w>
n e</w>
o k
Z eit</w>
P er
Inv esti
at t
c ul
B ed
Ma ß
gr und</w>
a h</w>
N or
si erung</w>
f und
I f</w>
gem ein
countr y</w>
wir d.</w>
am ent
S teu
ge t</w>
be come</w>
soll te</w>
Doll ar</w>
et wa</w>
f rei
dies es</w>
wick el
po in
Kre di
Pro z
M ark
re ,</w>
re ad
k er</w>
Ber ei
worl d
us e</w>
ih r</w>
nation al</w>
su ch
sp ar
B u
ex amp
ver si
de ci
ci es</w>
l ast</w>
Hau shal
a i
st o
e th
Staat en</w>
r ul
jed och</w>
h andel
In deed,</w>
en ti
Ent schei
ag re
t al
h in</w>
l ed</w>
ex c
wie der</w>
z wei</w>
Z usammen
m i
hä t
lik ely</w>
s eit</w>
re as
pro c
is su
te chn
e qu
a k</w>
wei t</w>
re li
gan g</w>
de u
lei st
w ell
wel l</w>
su m
s eh
n ed</w>
br au
hö h
f ä
h au
An d</w>
at er</w>
ver sch
k un
st er
K apit
Di es</w>
ed u
L ei
Jap an</w>
re form
Sy ri
heu te</w>
ri gh
Wirtschaf t</w>
Demo krati
ad v
ent wickel
ch ines
w al
eh l
crisi s</w>
B ri
re co
un c
b ank</w>
n am
p ra
st er</w>
us s</w>
shi p</w>
eb en
i den
n is</w>
ap pro
sich er
z us
De ut
neu en</w>
W ahl
Pro duk
Präsid ent</w>
er weise</w>
al er</w>
ra tion</w>
li ber
e ver
f ut
m as
ar g
Pres ident</w>
w ach
d re
sat z</w>
zun eh
sein ,</w>
W o
f ul
W ähr
u r</w>
sch en
Staat s
cre di
En ergi
kl är
uroz one</w>
govern ment
Ira n</w>
milit ary</w>
a il
hn en</w>
Wachst um</w>
dies en</w>
to da
R o
S u
pos si
kei ten</w>
hab en,</w>
or gan
tim m
i g</w>
hän gi
Russ land</w>
uri ty</w>
po ten
de pen
a z
B il
tro l
ter m</w>
s ’</w>
ow n</w>
de t</w>
schaf t
k onom
re g
Ri si
wir d,</w>
con f
Gr und
M us
t ä
ver b
e w
tran s
f ahr
de bt</w>
19 8
f el
si cht
c all
mem ber
fu l</w>
strat egi
zeh n
schi ed
ti sche</w>
0 %</w>
s ehr</w>
Entwickl ung</w>
mei sten</w>
so ur
it ä
z w
on d</w>
fl ation</w>
0 00</w>
rec ent</w>
mit tel
in f
throu gh</w>
der e</w>
lon g</w>
z eu
soll ten</w>
bein g</w>
c ap
ß er
fa il
tra de</w>
p i
en erg
hig h
r us
t om
an ge
ges ich
te t,</w>
H andel
p rä
mp f
k s
N ation
he al
sup port</w>
inter est</w>
lea ders</w>
tr au
s h</w>
wur den</w>
U kra
P rei
wär e</w>
ati v
st ron
ä f
stru k
Regier ungen</w>
er .</w>
der ,</w>
al le
ben ef
W h
Milli ar
der ar
Entwickl ungs
Unter stütz
sti ll</w>
Obam a</w>
so gar</w>
sion s</w>
vi c
des sen</w>
st ate</w>
t un
con si
mig ht</w>
Isra el</w>
al -
do es</w>
wich tig
ant wor
h under
k e</w>
c y
Chin a’s</w>
erhal b</w>
te m
ter s</w>
sin d.</w>
b as
u f
Uni on</w>
l ass
o m</w>
so wie</w>
br ing
te l</w>
lei ch
ta in</w>
, ”</w>
war d</w>
ein f
ge .</w>
war en</w>
i gen</w>
gegen über</w>
l ag
de f
T er
Is lam
ff en</w>
d ru
Z ent
an del</w>
ran k
f as
f ar</w>
B ür
hist or
tur e</w>
Isra el
reg ul
li eg
Deut sch
Sy st
t -
re al</w>
t sch
le x
so cial</w>
and ,</w>
ri sk
y e
bes ser
with out</w>
ent ,</w>
for eign</w>
n en</w>
R ück
sin ce</w>
K in
tion s
s es</w>
ch all
gesich ts</w>
wirtschaft lichen</w>
tak e</w>
ti n</w>
ne t</w>
b ar</w>
V i
st ren
tei l</w>
b re
T o
b en,</w>
for e</w>
un der</w>
Tats ächlich</w>
fis cal</w>
nu n</w>
j u
T ur
d est
no v
o ,</w>
se t</w>
kan n
lon g
er h
d ro
all erdings</w>
Milli onen</w>
G D
te c
inclu ding</w>
ak ist
se .</w>
econom i
g yp
an .</w>
F ol
kom men
curr ent</w>
r än
ur o</w>
import ant</w>
wor k</w>
s einen</w>
Kri se</w>
Min ist
b est
s c
z eig
se em
s ere</w>
berei ts</w>
Z i
G ef
d on
b us
Unterneh men</w>
w om
ör der
N i
i zi
o k</w>
wirtschaf t</w>
D ur
st re
bu il
wei ter</w>
d ann</w>
to o</w>
St at
N A
si schen</w>
Chin ese</w>
ap pe
Th at</w>
so zi
rat es</w>
tic ul
nis se</w>
o se</w>
in ,</w>
com mun
be wer
der en</w>
ab hängi
F ri
priv ate</w>
hat ,</w>
europä ischen</w>
w es
t wen
rei ch</w>
fü r
r al
y -
ma de</w>
In stitu
z eit</w>
n ung</w>
gan gen
ci p
Wachst um
ar m
s en,</w>
is m</w>
can not</w>
Ma cht</w>
examp le,</w>
th ough</w>
st .</w>
p ur
& #
1 60
wi ll
re f
r y</w>
hal ten</w>
re .</w>
ar ,</w>
p ec
ie der
H in
us ed</w>
z er
maj or</w>
t s,</w>
m ö
v oll
pro mis
S el
g en.</w>
C o
wahr schein
ism us</w>
sur e</w>
B ank</w>
olo g
i hnen</w>
I ran
ti z
hab en.</w>
read y</w>
Gen er
ü h
di d
hau p
ren z
n ec
lar ge</w>
an ni
at ,</w>
se qu
p la
Re ch
R ei
Jahr zehn
P u
for c
et ary</w>
mo der
tra di
B I
b ra
am e</w>
B ev
govern ments</w>
aus ge
ac coun
sein .</w>
m ati
Russi a</w>
glob alen</w>
ed ri
S ec
gab en</w>
ali sm
edu c
unter stütz
Th ey</w>
st in
ac t</w>
Verein ig
ell ei
Th ere</w>
qu es
b ru
di rec
dar auf</w>
ye ar</w>
ment ,</w>
k ün
Unterstütz ung</w>
ar d</w>
Inter es
T ru
posi tion</w>
en k
Vol ks
om e</w>
hig h</w>
t s.</w>
th ,</w>
groß en</w>
du ce</w>
ab li
.  </w>
re k
W er
p p
on .</w>
sch ul
en ding</w>
ün g
W ir</w>
Milliar den</w>
L e
on -
B ar
ver s
eb en</w>
tor s</w>
ge führ
auf grund</w>
r ing
nu clear</w>
Fran k
com pe
ab ly</w>
be tra
amerikan ischen</w>
di d</w>
Bus h</w>
ent schei
M ar
W e</w>
al .</w>
In ternation
2 0</w>
EU -
ir e</w>
par ticul
fi z
a de</w>
p er</w>
ali ty</w>
ch il
politi c
pro tec
S ou
do ch</w>
pl om
&# 160
En de</w>
P akist
Land es</w>
exp ec
en or
k ey</w>
ges am
pos ed</w>
p rei
D a
St rat
of ten</w>
ellei cht</w>
reli gi
l d</w>
den ce</w>
wirtschaft liche</w>
x t</w>
ch ,</w>
t ly</w>
Bev ölk
se k
ar o
R ol
t rä
th ing</w>
ex tre
b eit</w>
for men</w>
N at
G lob
b is
Af gh
Entschei d
unk t</w>
li g
iel e</w>
Ges und
rän k
off en
b asi
ä h
Ar g
k ein</w>
bank s</w>
th en</w>
id d
a -
j etzt</w>
Chin as</w>
zi el
or s</w>
as ,</w>
w in
könn en.</w>
Me di
In dustri
re duc
hum an</w>
Pu tin</w>
au th
vi du
B ra
i k
go od</w>
Q u
si mp
G em
w ä
n um
ärk te</w>
w oll
hat .</w>
c as
t ar
sh ar
cur ren
un ser
ah er</w>
könn ten</w>
invest ment</w>
groß e</w>
over ,</w>
dow n</w>
th e
ation s
B eh
fall s</w>
ni edri
in dustri
a v
ing ly</w>
Zent ral
hei ten</w>
ment .</w>
s eri
K li
Jahr hunder
Au ch</w>
com m
demo krati
Kon f
ter ror
Maß nahmen</w>
en st
market s</w>
in dem</w>
s ci
ß en
tu r</w>
beson dere</w>
u li
finan zi
dre i</w>
sch aff
ver ,</w>
Ges ell
l es</w>
bet ter</w>
zuneh men
da bei</w>
W ar
geb en</w>
kun ft</w>
e ’s</w>
inter est
F rau
re qui
erk enn
Z in
te gra
M ög
internation alen</w>
Steu er
Jap an
H o
Pal est
Ge gen
par t</w>
U N
Bes ch
su st
ä stin
th in
ma ß
cent ral</w>
wie der
da von</w>
de fic
Investi tionen</w>
ri ght</w>
m ar
eigen en</w>
capit al</w>
f rü
ä u
tur n</w>
sp e
Mitg li
l ab
Strat egi
d oll
am ong</w>
Ge or
an y
Americ a’s</w>
w achst
st ark
op p
b en.</w>
Wor ld</w>
la ge</w>
th .</w>
t lich</w>
Tei l</w>
b lo
Vereinig ten</w>
tra c
val u
t z</w>
in ten
al ready</w>
Sel b
Bu t,</w>
pro f
b ro
i sch
all y,</w>
d el
W ie</w>
ed s</w>
L ös
lang fristi
g lau
f ig
et s</w>
ä ß
F rei
wa ys</w>
sh or
li tt
hin der
c ol
z war</w>
K ore
hel p</w>
em erg
z el
energ y</w>
al y
M ore
all er</w>
ta x</w>
ra ther</w>
p ut</w>
it .</w>
ent .</w>
k now
mis sion</w>
u n</w>
contin u
More over,</w>
t :</w>
sch on</w>
lea der
poli cies</w>
ür lich</w>
long -
stren g
es sion</w>
land s</w>
an z
s er</w>
aus forder
bei den</w>
ak an</w>
Kli ma
Afgh an
Proble m</w>
b rit
sec urity</w>
Al s</w>
con tro
Bank en</w>
inn erhalb</w>
i en</w>
R I
ris k</w>
ech n
or ity</w>
brit anni
f ur
beste ht</w>
M or
n ei
ad d
thre e</w>
Groß britanni
rei chen</w>
n äch
Sicher heits
sig ni
compe ti
wh e
at er
be fore</w>
Ter ror
n ing</w>
ho us
lo se</w>
Di es
bus in
m ,</w>
c er
vi ol
b ur
5 %</w>
gr und
Er geb
gest ell
M ilit
lich ,</w>
su ff
p eri
aro und</w>
en z</w>
sp rech
P ut
S ü
k as</w>
Aus wirk
ges t</w>
S ei
ic ul
est abli
F ä
ern ,</w>
pl ac
19 7
A ll
nah me</w>
diff icul
war ,</w>
on ds</w>
T o</w>
Chin a,</w>
T O
e as
ein ige</w>
world ’s</w>
h af
we ver,</w>
an zu
sel f
Afghan ist
la w
comp ani
schein t</w>
ma in
exp eri
Gem ein
an ischen</w>
ne e
lä s
dur ing</w>
N ew</w>
as h
Her ausforder
I de
tu ral</w>
schließ lich</w>
Be zieh
p as
m il
im pro
ev er</w>
kon n
g ni
glei ch</w>
mul ti
e p</w>
a y
0 0
n b
län der</w>
litt le</w>
si cht</w>
proble m</w>
Gesch ich
a at</w>
countri es,</w>
il y</w>
in form
is ,</w>
G o
cht ung</w>
Ar t</w>
mis sion
gres s</w>
fe w</w>
   
K amp
st -
si de</w>
kri se</w>
Rol le</w>
indi vidu
it h</w>
5 0</w>
aus zu
kei t,</w>
F ir
ati ven</w>
D ar
Z wei
kom m
an other</w>
o il</w>
da für</w>
whe ther</w>
bei spiel
k ä
schaf ten</w>
ra di
G ri
l er</w>
Re publi
pre v
Americ a</w>
ser v
fut ure</w>
h äl
re pres
B et
p at
M an
ä hn
me as
ali sti
techn ologi
z ep
pri ces</w>
Ko sten</w>
ci vi
Ameri ka</w>
z o
le ar
er forder
ch o
’ t</w>
b illion</w>
bas ed</w>
tion s,</w>
ge t
dom es
or der</w>
increas e</w>
Or gan
Konf lik
res our
ak tu
sour c
s en.</w>
z ö
me hr
d ri
idd le</w>
f all</w>
cour se,</w>
develop ing</w>
all ,</w>
f am
i scher</w>
Proz ent</w>
a ge
es sion
alle m</w>
j üng
develop ment</w>
F all</w>
hig her</w>
au m</w>
cent ur
et was</w>
f ast</w>
com mit
G rupp
ord in
m el
ma cht</w>
in come</w>
ad a</w>
sol u
eri ch
v em
G i
Afri c
t sp
nb sp
W hen</w>
F l
ver fü
internation ale</w>
er klär
K ur
sicht lich</w>
be d
gen de</w>
Haushal ts
n er</w>
W i
Demokrati e</w>
shi p
D is
t on</w>
ro w
gen d
tion s.</w>
k ul
gen om
f al
Leb en</w>
lin e</w>
m illion</w>
bu d
Proble me</w>
minist er</w>
S au
b ack</w>
z ed</w>
sust ain
c lim
en tier
vi ron
conf lic
brau ch
k rä
en der</w>
E C
o d
gen d</w>
con su
M ach
on d
W is
pl an
Regi on</w>
k ,</w>
Kri eg</w>
ist s</w>
ar s</w>
j o
f äl
Par tei
pec i
t ungen</w>
sup por
s weise</w>
ne g
h ör
fra ge</w>
sch le
es peci
countr y’s</w>
t es
I m
f ass
le ast</w>
call ed</w>
al most</w>
kur z
com es</w>
signi fic
ad minist
E ben
ci tiz
di st
glob ale</w>
ach e</w>
h op
Palest ini
welt wei
ne xt</w>
sen schaft
O p
H il
se ver
par ti
ett bewer
ac ro
Auswirk ungen</w>
g ,</w>
Zu kunft</w>
Ö l
sti eg</w>
vi elleicht</w>
ta x
st ei
progra m
Deutsch land</w>
ch ang
especi ally</w>
er reich
domes tic</w>
bili ty</w>
ür z
u res</w>
n er
ap p
ä d
k in
D en
st off
c ame</w>
Währ ungs
Re volu
ges etz
f est
fo c
hand l
sch wi
es s,</w>
ali s
m al
Wei se</w>
öffent lichen</w>
ne w
k s</w>
op port
me ans</w>
be deu
g ing</w>
si st
t l
T ür
go ti
de fin
Politi ker</w>
b au
W as</w>
T ran
Kredi t
A t</w>
0 er</w>
GD P</w>
si sche</w>
un den</w>
of f</w>
& nbsp
com ing</w>
Fra ge</w>
ro le</w>
g ut</w>
viel en</w>
mon etary</w>
in gen</w>
wür den</w>
a i</w>
employ ment</w>
be w
E urozone</w>
di g</w>
ali sierung</w>
Mitgli ed
so li
le vel
ins besondere</w>
pro duk
Handel s
p rin
acc ep
Ger man
geh en</w>
tsch rit
c la
St ates</w>
Mus li
wen ig</w>
er folg
stell en,</w>
et ,</w>
I M
ra is
G eb
rema ins</w>
es en</w>
with in</w>
p ite</w>
s ed</w>
di plom
be lie
soci et
o s</w>
ein mal</w>
te te</w>
rei f
fol low
en ces</w>
tig ung</w>
en viron
it y.</w>
arg um
Ob wohl</w>
ä ri
m om
it y,</w>
mer k
eff or
b li
er sten</w>
b l
stell ung</w>
respon si
“ ,</w>
W eg</w>
st abilit
es sen
ne gar
könn en,</w>
Gel d</w>
yo u</w>
g o</w>
m ut
W ith</w>
zu g</w>
t ats
sel f</w>
p ast</w>
Be deut
gen den</w>
steh en</w>
es ’</w>
P h
Ein fl
ech en
Sicher heit</w>
tu k</w>
ell er</w>
är e</w>
un sere</w>
ä m
Ira k</w>
dem and</w>
reco gni
el y,</w>
fund ament
K rank
al ten</w>
Kapit al
wh y</w>
ra p
ho wever,</w>
weiter e</w>
g g
ne goti
ne eds</w>
Europe ’s</w>
I t
te i</w>
pri ce</w>
n on-
her r
echn ologi
milit äri
c oll
gan z</w>
tion ier
H am
ö hn
Europ as</w>
Ö konom
O ne</w>
S i
hel p
so wohl</w>
län di
ern .</w>
Mit tel
weiter hin</w>
b t,</w>
sch es</w>
rema in</w>
ever y
spec i
con di
Frau en</w>
wahrschein lich</w>
un tuk</w>
b ack
Ge wal
chines ischen</w>
tier t</w>
Gel d
o ther
gi ven</w>
fä hig
e k</w>
heal th</w>
la gen</w>
economi es</w>
Li b
stron g</w>
Ira q
ne ver</w>
Europä ischen</w>
dr ück
a 's</w>
en e</w>
c e,</w>
A tom
le ad
bes timm
Gr ün
k ore
W ährend</w>
I W
a gen
200 8</w>
differ ent</w>
ri se</w>
stell en</w>
le gi
For tschrit
B eg
r o</w>
de ter
P ol
a ir
democra tic</w>
ar e
sho w
re volu
au s,</w>
N E
Th ese</w>
ag es</w>
Mitg lie
Inv est
a gi
Au ßen
t est
s ing</w>
s ing
tim es</w>
form er</w>
M an</w>
s s</w>
gr ün
ar gu
amerikan ische</w>
f f</w>
er s,</w>
c y.</w>
U m</w>
gef ähr
land ,</w>
we ak
A ut
um fas
B em
gre ater</w>
beste h
th ers</w>
f t
e vi
sa m</w>
Ukra ine</w>
M ex
en ?</w>
Kri eg
mon ey</w>
te mp
hal ten
ex por
an -
Russi an</w>
ein zu
Tei l
W hat</w>
chall en
F ren
las sen</w>
führ en</w>
wi der
Wes tern</w>
seem s</w>
stat es</w>
tig er</w>
or en</w>
spi el</w>
re form</w>
lan ge</w>
mem ber</w>
ein zi
all en</w>
s ag
re t
nee ded</w>
res er
num ber</w>
W ahr
er war
en :</w>
c aus
add res
lieg t</w>
T ro
Fü r</w>
Ara b</w>
f unk
Ver b
S it
Fri ed
vi ew
t yp
grow ing</w>
E uro</w>
d ent</w>
Gr und</w>
ver besser
c y,</w>
em is
ro h
j ob
e ach</w>
Ameri kas</w>
comp le
re m</w>
re cht
anti -
s einem</w>
li es</w>
in nov
Indi en</w>
M it</w>
C ent
ou ra
a w
Ameri kan
ke hr
it ,</w>
des t</w>
mak ing</w>
er höh
e der
in tel
beispiel sweise</w>
Wo hl
L o
p ass
in ed</w>
long- term</w>
as i</w>
sch o
g an</w>
kom p
alism us</w>
B el
to ward</w>
provi de</w>
le d
for ce</w>
th at,</w>
d ür
Men schen
Sou th</w>
k ing</w>
R ah
Gre ec
Af ter</w>
sch ie
is ch</w>
inf lu
Gri echen
F re
se e</w>
Re formen</w>
be deut
te t.</w>
ei l
E r</w>
T O</w>
Sch rit
BI P</w>
ti l</w>
lo sig
ro p
organ iz
in e
Leb ens
ref lec
hap s</w>
J o
nec ess
kan n.</w>
clim ate</w>
alit ät</w>
sch lä
n ess</w>
den n</w>
a in</w>
k auf
m .</w>
län dern</w>
e very</w>
at ely</w>
inter ven
geh t</w>
c amp
G leich
gen u
beg inn
St aat</w>
u fi
steh t</w>
them sel
ti cal</w>
t al</w>
strat eg
tim e,</w>
O R
su g
res ear
Geschich te</w>
wach sen
contin ue</w>
ar ab
sp ending</w>
dec a
Präsid ent
M iddle</w>
ec k
wur de,</w>
te ch
ih rem</w>
d aher</w>
a th
th us</w>
anc ed</w>
z usammen
ous ly</w>
Wh ile</w>
gro up
Pro gra
ch ar
k o</w>
d ou
ti vi
ti es.</w>
sp ä
fre e</w>
possi ble</w>
D ru
. “</w>
establi sh
j ek
tegra tion</w>
t ät</w>
succ ess
h u
b illi
wür de.</w>
le dig
M is
sp re
pf lich
in depen
es s.</w>
ent e</w>
au l
So zi
einf ach</w>
St ra
Lei st
we g
an der</w>
L age</w>
Gesund heits
Führ ung</w>
3 0</w>
F ehl
S ep
us ,</w>
s af
po or</w>
p unkt</w>
bei m</w>
n s</w>
her vor
per son
E ven</w>
ver ur
tei dig
ent ed</w>
particul arly</w>
countri es.</w>
K or
B y</w>
entschei den
tor i
f ran
S ek
worl d.</w>
d y
d ang
betra ch
au ß
lich es</w>
ung en.</w>
W ieder
Men sch
W ettbewer
Präsid enten</w>
op en
Sep tem
w est
N eu
ten s</w>
Me hr
lon ger</w>
eben so</w>
Schul den
führ ung</w>
T echnologi
increas ingly</w>
It ali
si mil
h om
g ain
em er
g ang
K an
S in
al tern
p rec
b s
Hau p
w an
u h
is h
grund le
eig n
as ser
s on</w>
Institu tionen</w>
Fren ch</w>
po ver
gab e</w>
tig keit</w>
zei chn
ab zu
Syst em</w>
uni on</w>
H ö
Sch l
year s,</w>
Arbei tsp
ri er
re duce</w>
auf zu
righ ts</w>
ll en</w>
A d
pres iden
ob wohl</w>
US A
politi ci
m y</w>
Res er
vi ew</w>
si v
gre at</w>
tra g</w>
institu tions</w>
C O
tn er
Zi el</w>
s ach
low er</w>
proble ms</w>
pro jec
fac e</w>
comm on</w>
co st</w>
N ah
hät te</w>
con tri
ad ,</w>
E ast</w>
geb en,</w>
tern al</w>
star k</w>
l li
difficul t</w>
ni e</w>
Er fol
sti mm
b are</w>
ges eh
un de</w>
fü n
ätz e</w>
v el</w>
pl ace</w>
e gen
G ren
Bem üh
schn it
E uro
w ant</w>
a ver
S ol
wachst um</w>
an s
an ische</w>
an gesichts</w>
NE W</w>
stän d
ter ,</w>
Minist er</w>
nation alen</w>
Mög lich
ßer dem</w>
ou ght</w>
Par tei</w>
Großbritanni en</w>
emerg ing</w>
U r
I ch</w>
t t</w>
m äß
ti ef
er st</w>
be li
iden ti
T a
% .</w>
in flation</w>
H I
setz ung</w>
Uni versi
C lin
tig t</w>
ear ly</w>
tats ächlich</w>
ali sier
. 000</w>
r e</w>
a vo
sp ek
re qu
p al
nich t,</w>
sec tor</w>
sp er
j ähr
de mon
es i
Be i</w>
ti es,</w>
it z
Bus h
Bezieh ungen</w>
la g</w>
fi c</w>
al low
Ger many</w>
än g
wh er
ver ring
member s</w>
er ig
Bri ti
t y,</w>
st an
F ed</w>
&#160 ;
te ten</w>
bes t</w>
staat en</w>
europä ische</w>
Ver änder
Bevölk erung</w>
ästin en
y et</w>
m ir</w>
W est</w>
näch sten</w>
k aum</w>
fur ther</w>
war .</w>
li mit
hat te</w>
ex ist
U N</w>
tier en</w>
ledig lich</w>
le k
f ehl
ent lich</w>
poin t</w>
e y
O st
ver l
si tu
ger n</w>
“ .</w>
stell en.</w>
consi der
chil dr
rup tion</w>
no twen
region al</w>
be kann
Frank reich</w>
M ein
ser vi
bi e
O f</w>
ex change</w>
geb ra
con sequ
O n</w>
ver hinder
de p
thre at
at ast
eh em
c ase</w>
D es
aliz ation</w>
Res sourc
i ev
f örder
d au
anc es</w>
, 000</w>
us ti
lea d</w>
St abilit
to ge
mo bili
dig keit</w>
US ,</w>
con stitu
Berei ch</w>
k einen</w>
ation s,</w>
For sch
stat t</w>
kan n,</w>
ufi g</w>
M al
deut lich</w>
we al
ke i</w>
Nor th</w>
well en
we ap
G -
Organ is
wom en</w>
Au f</w>
g keit</w>
kom men,</w>
a ig
ist en</w>
bru ch</w>
In form
fi ed</w>
Tür kei</w>
Ara bi
ig nor
Sch wellen
on g
ö konom
ges ell
gen ann
ch te</w>
effor ts</w>
Wachstum s
Ges etz
politi scher</w>
k ti
f en,</w>
kün f
de fiz
Lös ung</w>
lo s</w>
inv es
fra struk
G az
Bei spiel</w>
bed ing
W ähl
ati v</w>
or ,</w>
off ici
b ah
Re gel
er le
W est
E gyp
stand ar
conc ern
trol le</w>
ih m</w>
öffent liche</w>
u ally</w>
d at
Wes ten</w>
seri ous</w>
nich ts</w>
ier t</w>
cre ate</w>
möglich erweise</w>
E ast
effec tive</w>
ation s.</w>
u k
sm all</w>
simp ly</w>
ge o
a di
on ce</w>
Th em
sh are</w>
resul t</w>
mas sive</w>
k enn
ini ti
f ang</w>
contro l</w>
aus ländi
th ir
or y</w>
o cc
busin ess</w>
co sts</w>
bar en</w>
ander er</w>
proc ess</w>
fran zö
k now</w>
Fä hig
D ev
auf ,</w>
F ak
system s</w>
con om
democra cy</w>
at ten
S er
S e
ac y</w>
So vi
econom ic
att ack
ih n</w>
St u
sec ond</w>
E conom
An gesichts</w>
lab or</w>
Europ e,</w>
Bar ack</w>
l ang</w>
e urozone</w>
Syst em
Briti sh</w>
bes ser</w>
co oper
tra g
hei t,</w>
Selb st
Ira q</w>
def en
belie ve</w>
geh ör
Schul den</w>
Klima w
erh eb
pra c
T i
0 ,</w>
ein ander</w>
Internation al</w>
sup p
har d</w>
Arg ent
an nu
zi erung</w>
ges etzt</w>
dis c
ach iev
p ol
le ft</w>
B re
publi c
gen au</w>
sch wer
on i
camp aig
c ut
Re ak
Re z
olog y</w>
eff ici
ag ed</w>
curren cy</w>
ver such
appro ach</w>
or ding</w>
di gen</w>
D eb
k re
itä ten</w>
gew inn
Mark t
gegen wär
S ome</w>
pa y
G u
st ud
1 8
lich .</w>
di vi
Bür ger</w>
а р
fac t,</w>
le ment
in fl
pe ace</w>
ge wor
Ver trau
Ver handl
ch er</w>
Ver fass
P re
poten tial</w>
st ab
eg el
Nat ürlich</w>
Einfl uss</w>
l y.</w>
größ ten</w>
Regier ungs
al ways</w>
welt weit</w>
we der</w>
k n
di rek
po se</w>
er möglich
Septem ber</w>
p ro</w>
losig keit</w>
fin d</w>
res t</w>
eh er</w>
- -
Interes sen</w>
funk tionier
ru k
hin aus</w>
c l
ar .</w>
af ri
H e</w>
pro mo
o un
lass en.</w>
f ten</w>
Dur ch
Un gleich
sec u
In flation</w>
ver schied
m es</w>
NA TO</w>
Bed roh
zunehmen d</w>
re gar
ho ch
en ough</w>
war um</w>
ver antwor
tor en</w>
li g</w>
führ en.</w>
qu o
hin sichtlich</w>
Fl ü
tu ally</w>
le vel</w>
herr sch
tre at
Wi der
compani es</w>
dar i</w>
c e.</w>
and l
Y et</w>
i ce</w>
e f</w>
us ing</w>
ques tion</w>
p ut
Z ahl
s si
legi tim
il l</w>
ar ch
poli cy
An g
benef its</w>
ma g
di se
coll ap
st ör
nach hal
bi g</w>
res ol
W ert</w>
derar tige</w>
l ack</w>
Ver mö
N ord
eff ek
Sü d
IW F</w>
f ron
chines ische</w>
P l
ver gangen
anc e,</w>
Par lam
sol che</w>
si s</w>
is h</w>
us s
mon th
lo cal</w>
alis m</w>
em b
rat en</w>
o c
ehem ali
o ft</w>
r un
beson ders</w>
st eu
so ver
ri ch</w>
leg al</w>
Milit är
Ger man</w>
m p</w>
eu te</w>
A ll</w>
Ver antwor
un terneh
hal f</w>
umfas sen
tiv es</w>
en z
wh ose</w>
inv ol
dra mati
an s,</w>
Europä ische</w>
1 .</w>
v ari
all gem
m e,</w>
ac tion</w>
worl d,</w>
ih res</w>
zei ch
ge wi
k am
de ten</w>
F am
unter schied
er te</w>
den k
ther e
di sp
O sten</w>
at ely,</w>
zei tig</w>
zeh n</w>
wis senschaft
and s</w>
der zeit</w>
W ech
Afghanist an</w>
Co un
um s</w>
self -
neh men</w>
elec tion</w>
W ar</w>
D a</w>
des pite</w>
er ed</w>
ad op
b ut
schaf ts
Volks wirtschaf
Kamp f</w>
kon zent
enst leist
R om
tradi tion
fo und</w>
sam en</w>
Russi a’s</w>
Mitglie der</w>
se i</w>
hal ten.</w>
Kon trolle</w>
Sovi et</w>
n et
Sch i
P e
z ahl</w>
se em</w>
kom men.</w>
m ärkte</w>
lex i
Gesell schaft</w>
Progra m
Indi a</w>
be ein
d s,</w>
N ach</w>
Zin ss
Cent ral</w>
val ue</w>
cht en,</w>
be fin
reas on</w>
dar in,</w>
Ar m
lä tz
M u
in i</w>
bank en</w>
es tim
ver stärk
re ck
pa y</w>
hö her
ra li
h im
geb en.</w>
ex pen
diplom ati
di en
Ver gangen
ß en</w>
som e
lei hen</w>
H e
1 ,</w>
unser er</w>
lat er
de ep
wirk lich</w>
Bedeut ung</w>
w inn
le ben</w>
h n</w>
b rei
B est
tei le</w>
hum an
au s.</w>
for ces</w>
al o
über sch
b ig
ec t</w>
si li
popul ation</w>
ment al</w>
er ste</w>
b an</w>
Kre m
d ort</w>
all es</w>
s :</w>
me chan
ar beit</w>
an z</w>
hal b</w>
gew al
ah r</w>
it self</w>
hal ten,</w>
ch s</w>
ar -
Tru mp</w>
Pri v
In frastruk
il o
Haup t
Nah en</w>
E i
gi l
Re gu
t y.</w>
T ra
S par
а л
Palestini an</w>
ein ig
Flü cht
Fam ili
blei bt</w>
t ah
qui di
men g
bo o
L in
Gewal t</w>
ris ing</w>
reform s</w>
exp an
Y OR
lo ok
C A
J u
st a
is tischen</w>
IM F</w>
sti mul
en ing</w>
acro ss</w>
ab o
sch l
n ö
li n</w>
l ess
credi t</w>
b t.</w>
Wech sel
v il
d -
Ri chtung</w>
J e
pro fi
i ra
ess es</w>
V or</w>
Geor ge</w>
ur ch</w>
fall en</w>
dic t
se l</w>
i p
führ en,</w>
Risi ken</w>
lo ok</w>
F eder
den gan</w>
bal ance</w>
G eh
wur de.</w>
develop ed</w>
Erfol g</w>
con tra
1 ,
tro tz</w>
imp act</w>
en th
st eig
p us
increas ed</w>
ef u
da k</w>
är en</w>
pro b
pe ac
am oun
sci enti
lo ss
agre ement</w>
wich tige</w>
fra struc
lead ing</w>
H off
an u
grow th.</w>
eh ol
T re
w on
bud get</w>
ab le.</w>
h im</w>
er ten</w>
G eg
com par
b au</w>
tri c
rec ently</w>
rei cht</w>
o ds</w>
Tats ach
O n
them .</w>
t liche</w>
acc ess</w>
z ing</w>
sich ten</w>
ir gend
con fi
An t
r ück
Z iele</w>
S ub
N e
um ,</w>
ter ms</w>
tak en</w>
ge wis
en sure</w>
M any</w>
Aus gaben</w>
weltwei ten</w>
ter ri
signific ant</w>
d ungs
Sit u
ma chen</w>
W aff
ver mei
chall eng
negar a</w>
un ity</w>
themsel ves</w>
simil ar</w>
seh en</w>
eth ni
al tung</w>
ver folg
Kin der</w>
la w</w>
l ö
uroz on
Arbeitsp lätz
Wahl en</w>
ali st</w>
1 .
zus etz
mög lich</w>
ak zep
St ruk
vergangen en</w>
19 3
year s.</w>
ga b</w>
fac t</w>
enc oura
all ein</w>
ut z</w>
s low
man age
Menschen rech
tech ni
sen se</w>
re ach
en “</w>
Fol gen</w>
be haup
um p
tiv en</w>
b on</w>
ar y,</w>
stell t</w>
cor por
year ,</w>
ma in</w>
a p</w>
y ond</w>
mom ent
tiv ity</w>
st ability</w>
regi me</w>
Ver bin
zu ,</w>
v is
ru n</w>
effec tiv
c ally</w>
ari an</w>
al es</w>
s eines</w>
rec ei
al am</w>
D ef
A S
c u
Amerikan er</w>
tra gen</w>
ti v</w>
g ed</w>
finan c
er ing</w>
V iele</w>
D ep
&nbsp ;
thin k</w>
l ing</w>
Politi k
w äch
Ver teidig
accoun t</w>
pur su
er wei
m ier
Strategi e</w>
zu min
un til</w>
off izi
in ing</w>
Län der
stand ing</w>
nei gh
Pakist an</w>
E Z
resour ces</w>
pri c
J un
deter min
po st-
p an
mach en.</w>
ag ing</w>
op en</w>
ci r
ad di
in te
Ö ffent
de ck
N ieder
o thers</w>
li fe</w>
Fran ce</w>
An gri
be ha
an aly
S en
tar ge
priv aten</w>
ho hen</w>
Ges am
er s.</w>
o w</w>
fähig keit</w>
Sau di</w>
risk s</w>
g .</w>
fre ed
2 %</w>
sever al</w>
sch ätz
mo ve</w>
Su ch</w>
gel eg
A s
resear ch</w>
% ,</w>
per haps</w>
ou gh
li gen</w>
finan ce</w>
s ön
proble m
ev ent
P rin
Dru ck</w>
Dies er</w>
1 0
is ra
fün f</w>
j ap
For m</w>
wel che</w>
h y
d ly</w>
b ag
häl tn
To da
in frastruc
geführ t</w>
Wechsel kur
gew ähr
Revolu tion</w>
om in
ger ing
g a</w>
rus sischen</w>
econom y.</w>
cla im
citiz ens</w>
zus ätz
s -
o z
un abhängi
rei che</w>
nat u
Pri me</w>
m illi
go ing</w>
d y</w>
al li
adv anced</w>
E ff
ti dak</w>
requ ire</w>
isra eli
A I
zent r
consu mp
a ge,</w>
poten zi
hap pen
Rah men</w>
199 0
ärk ten</w>
sy ch
des ig
at temp
YOR K</w>
B RI
sion ,</w>
Bemüh ungen</w>
über zeu
zumin dest</w>
se x
ni ti
geh t,</w>
e jen
ck s</w>
men sch
gu te</w>
An teil</w>
our n
G ol
st eigen
ge ment</w>
ni em
ch ten</w>
li gh
einzi ge</w>
Wir k
Gren zen</w>
requi res</w>
lo k
An gel
z ation</w>
vi er</w>
childr en</w>
201 0</w>
et .</w>
Welt wirtschaft</w>
o -
f y</w>
m a</w>
größ te</w>
N G
Ressourc en</w>
or d</w>
fut u
d ungen</w>
De fiz
dy nam
de al</w>
Besch äf
Ak ti
parti cip
cap ac
stärk er</w>
rei b
t ation</w>
si tion</w>
Griechen land</w>
G lau
e hr
n äm
S ti
Bed ing
z ü
tru e</w>
Zei t
Li ber
K ol
vi si
Feder al</w>
Deb at
t lichen</w>
crisi s,</w>
ati ves</w>
hö ch
ver su
Re cht</w>
sp ra
auf ge
Americ ans</w>
e uro</w>
dow n
doll ar</w>
de t,</w>
c um
be l</w>
Ergeb nis</w>
Ein kommen</w>
mak es</w>
b it
k ed</w>
al s,</w>
Russ lands</w>
I tal
Finanz krise</w>
ren n
Ham as</w>
se en</w>
gu ar
sp r
power ful</w>
is lam
M ärkte</w>
An satz</w>
w ahl
sur pri
yo ung</w>
en ari
b ul
Fra gen</w>
200 9</w>
po or
j usti
pop uli
ak e</w>
o .</w>
interest s</w>
prei se</w>
ho ch</w>
work ers</w>
di ge</w>
Ä gyp
re cht</w>
k ürz
g as</w>
fri ed
Z iel
S or
Grund lage</w>
o l</w>
beg renz
u al</w>
lass en,</w>
ier en</w>
geh en.</w>
be came</w>
re turn</w>
per c
hä ufig</w>
dom in
Z ahl</w>
rupp en</w>
tu n</w>
fi el
vi ous</w>
l ück
je der</w>
fi ve</w>
be hör
ad urch</w>
S h
En g
kä mpf
Mitglied s
un employment</w>
re fu
g reif
at e,</w>
K ul
ta ge</w>
Au s</w>
Arm ut</w>
An d,</w>
wo hn
g t,</w>
f er</w>
ati n</w>
Mo d
ko st
e ge</w>
can did
A n</w>
sen k
k al
Rech ts
Ein kommen
toge ther</w>
m äch
krä fte</w>
ger ade</w>
M erk
19 4
tier en,</w>
te d.</w>
H ar
Bür ger
steh en,</w>
le ben
c al
st r
par ty</w>
we gen</w>
resul t,</w>
ke ep</w>
anc e.</w>
Ant wor
O ff
st rä
I niti
ver änder
sch ütz
n ya</w>
eri cht</w>
D G
rul e</w>
z in
toda y’s</w>
mo dern</w>
m ung</w>
bli ck</w>
Stabilit ät</w>
y si
könn te.</w>
em i
Vermö gen
Put in
v in
jüng sten</w>
i an</w>
No vem
wür de,</w>
te d,</w>
g ely</w>
cul tural</w>
tiv ität</w>
ti k
de li
S ark
j unk
ig en,</w>
e asi
be zahl
issu e</w>
Vergangen heit</w>
B und
1 5</w>
in sur
Y or
sch einen</w>
h an
for tun
dec lin
geh en,</w>
bis her</w>
Partei en</w>
In nov
t an
foc us</w>
Islam ic</w>
Ch ar
&#160 ;</w>
ten d</w>
t ungs
prev ent</w>
neigh bor
con struc
issu es</w>
200 8
g es</w>
de te</w>
thre at</w>
mig ran
Geor gi
Au ßerdem</w>
Arg um
h il
f es
z ul
so ,</w>
ra tion
civi l</w>
Sozi al
S ad
tak ing</w>
si ert</w>
setz en</w>
näm lich</w>
m es
toda y</w>
schn ell</w>
h ear
be gan
bank ing</w>
Sark oz
B au
strategi c</w>
qu ar
lar gest</w>
hol ung</w>
ful l</w>
sing le</w>
e den</w>
auth ori
Ar beit</w>
fail ed</w>
di stri
a im
P rä
5 0
il ,</w>
D rit
kurz fristi
k apit
gra ph
efu l</w>
el s</w>
cer tain
S om
sion .</w>
hop e</w>
at e.</w>
er ziel
ator s</w>
Afri ka</w>
ut zen</w>
strateg y</w>
sa y</w>
Nach frage</w>
Er fahr
tre ten</w>
pro z
policy mak
ho he</w>
em ents</w>
be hin
tier en.</w>
Ch anc
An rei
som eth
re ally</w>
geb o
ge l</w>
c are</w>
bew us
m ist
en e
wa ff
al d</w>
verb rei
gi ve</w>
dro h
b ilit
K ö
Dep res
st u
educ ation</w>
St and
M än
Di enstleist
n utz
leader ship</w>
grow th,</w>
enc e.</w>
dar f</w>
coun ter
Volkswirtschaf ten</w>
ver ständ
Ch ri
aktu ellen</w>
Bra sili
gew ähl
g än
besch ränk
Mark t</w>
pre ci
k ep
br ing</w>
komm t</w>
W ahl</w>
tu al</w>
d alam</w>
co st
Ei gen
Be zug</w>
el op
Zu gang</w>
Hil fe</w>
Bevölk er
regi on</w>
fü ll
Ukra in
teil ung</w>
einf ach
be ,</w>
M as
( und</w>
ob jec
Jah res</w>
kri eg
an ge</w>
a an</w>
increas ing</w>
fol ge</w>
K ar
w ron
tz dem</w>
sion en</w>
nation ale</w>
rel ativ</w>
Tatsach e,</w>
In fl
sec tor
p ada</w>
ag o,</w>
c ru
Ver fü
Musli m</w>
societ y</w>
popul ar</w>
cre ated</w>
ativ ely</w>
Tur ke
genom men</w>
Rez ession</w>
O N
L atin</w>
J anu
Nach bar
wo bei</w>
c los
a de
multi later
ing -
f en.</w>
ein igen</w>
br ingen</w>
Kan did
Ä n
ful ly</w>
y 's</w>
refu ge
in du
i cial</w>
enc e,</w>
eff izi
Zusammen arbeit</w>
Dev elop
re agi
hol d</w>
par ties</w>
con ven
z usam
v ement</w>
re por
gesch aff
politic s</w>
gen ce</w>
ash ing
öffent lich
spre chen</w>
challen ge</w>
Europ e.</w>
Öffent lichkeit</w>
star t</w>
s ett
Sei te</w>
gestell t</w>
annu al</w>
administ ration</w>
Entscheid ungen</w>
h ere</w>
ci l</w>
atast rop
tor y</w>
lar gely</w>
P lat
z ähl
presiden tial</w>
er er</w>
ü ck</w>
zu künf
weiter en</w>
gen e
W ashing
ra sch
ni cht
en zen</w>
chang es</w>
Bank en
qu anti
ei ther</w>
ci pl
staat lichen</w>
jen e</w>
eben falls</w>
ar a</w>
am bi
е р
pro spec
g s</w>
ein zel
col lec
du zier
Mehr heit</w>
s i</w>
hu ge</w>
K ra
meas ures</w>
k ol
dru ck</w>
arab ischen</w>
D am
stat t
f our</w>
9 ,</w>
ein schließlich</w>
Par ty</w>
t ent
necess ary</w>
lo st</w>
j em
invest ors</w>
hap p
en )</w>
sug gest
someth ing</w>
l ös
Mach t
Japan ese</w>
spi egel
N et
müs sen,</w>
Wirtschafts wachstum</w>
N ationen</w>
sp ru
d an
S tim
th ern</w>
hr e</w>
d lichen</w>
Führ ungs
prob ably</w>
in ge</w>
ide a</w>
he ad
bet rä
ag gres
3 %</w>
opp el
me an
kri eg</w>
k amp
for t
civi li
In ste
s th
forc ed</w>
et ing</w>
centur y</w>
S eit</w>
Kon junk
sam keit</w>
man u
defic it</w>
be yond</w>
addres s</w>
F und
rou gh
reas on
k or
maj ority</w>
inform ation</w>
H äl
spä ter</w>
inc en
ni mm
R en
1 00</w>
mach en,</w>
it al</w>
fe ar</w>
a way</w>
y ed</w>
thir d</w>
ne u</w>
ha ving</w>
f ern
s ;</w>
off icial</w>
under min
hin ter</w>
si eh
mark t</w>
l ing
k ehr</w>
ator y</w>
aff ung</w>
Sec urity</w>
wer den
politici ans</w>
dr in
Entschei dung</w>
pro pos
pal ästinen
h ang</w>
f lo
Al tern
w ander
stru gg
aliz ed</w>
poli ci
le gen</w>
im medi
com bin
beha vi
Lib y
Gemein schaft</w>
par li
Sch ließ
ü t
ent sprech
V iel
te m</w>
en -
Pro jek
Bund es
1 0</w>
sp or
fundament al</w>
f unc
ein ,</w>
c lose</w>
E mission
vor ,</w>
h et
H y
B i
1 %</w>
offici als</w>
läs st</w>
c ut</w>
Asi an</w>
ü ch
wur den,</w>
er kann
le ment</w>
b ad</w>
P op
tschaf t</w>
sub st
bring en.</w>
ü l
power .</w>
or der
conflic t</w>
argum entier
USA ,</w>
P ra
L at
re tur
fer end
Mit tel</w>
histor y</w>
con trol
zwei fel
s op
o x
em ber</w>
ation al</w>
rel ev
führ t</w>
da y</w>
bil ater
Prin zi
sa v
mor ali
institu tion
crisi s.</w>
wur den.</w>
rul es</w>
gew öhn
Syri en</w>
Nation al</w>
Clin ton</w>
e uro
Situ ation</w>
Per son
rel ative</w>
po st
high -
St ärk
pres sure</w>
to tal</w>
z e
sh e</w>
dec ad
P or
Jap an,</w>
19 6
t ren
st or
rel ation
h ome</w>
de t.</w>
dar über</w>
T ren
Ge fü
E li
Z w
Häl fte</w>
H andel</w>
to ok</w>
finan zier
al low</w>
Vertrau en</w>
Ver brauch
natu ral</w>
Coun cil</w>
а н
struc tural</w>
pro gress</w>
Go vern
höh ere</w>
h am
exp lo
e qui
Proz ess</w>
2 5</w>
wei sen</w>
p u
gro up</w>
at an</w>
Un abhängi
– ,</w>
sek tor</w>
müs sen.</w>
l ate</w>
aus reich
Fried ens
ven tion</w>
ra ti
pla y</w>
mit tl
la di
e :</w>
Bedroh ung</w>
pres ident</w>
d one</w>
ter .</w>
st ag
sa id</w>
buil d</w>
u tion</w>
k ill
beg an</w>
Pre mier
wi de</w>
re ven
k u
j et
Prei s
ob ach
at or</w>
Glob alisierung</w>
staat liche</w>
en s,</w>
econom y,</w>
as .</w>
an te
äch st</w>
ver lang
su per
s wer
influ ence</w>
handel t</w>
Kom mun
respon se</w>
is tische</w>
Gegen satz</w>
sch wer</w>
sat z
s us
da für
blei ben</w>
bei de</w>
Veränder ungen</w>
R u
Minist er
GD P
Dur ch</w>
sustain able</w>
f lexi
F örder
at trac
no thing</w>
lie gen</w>
k us
ch e
Inter net</w>
t est</w>
t ?</w>
b om
C am
Asi a</w>
tig en,</w>
Län der,</w>
ang an</w>
Jahrhunder t</w>
Isra eli
Gesch äf
g erich
st abili
le bi
fo od</w>
b ol
Risi ko</w>
t ol
rel ations</w>
neu er</w>
mo del
hist ori
benef it</w>
ben ö
vi r
uni ties</w>
pl an</w>
nach dem</w>
au t</w>
All erdings</w>
( and</w>
conf ron
a id</w>
’ s,</w>
vor zu
mo di
i ,</w>
Tru mp
B ru
4 0</w>
hel d</w>
üs se</w>
wär en</w>
v ul
ul tim
job s</w>
Re form
BI P
ä mpf
i le,</w>
geseh en</w>
Ko so
Ä r
sa gen</w>
ig h
expec ted</w>
Reak tion</w>
5 ,</w>
tra gen,</w>
situ ation</w>
mat eri
ch ed</w>
Regi me</w>
ün sti
schlä ge</w>
op position</w>
high ly</w>
er t.</w>
Arbeits losigkeit</w>
si l
re -
Zei t,</w>
Sch affung</w>
Eben so</w>
mo del</w>
do ing</w>
contri bu
bre ak
th er,</w>
religi ous</w>
k .</w>
Sp iel
tran spar
steh en.</w>
s )</w>
h en
el se
Zin sen</w>
über haup
pra kti
di ejen
dang er
commun ity</w>
avo id</w>
demokrati schen</w>
äh ri
T ai
s ou
posi tive</w>
level s</w>
größ ere</w>
gemein samen</w>
Z un
Schrit t</w>
tradi tional</w>
se ek
rou ght</w>
li ve</w>
la m</w>
ern sth
cht en.</w>
Verhandl ungen</w>
Sp ani
Glob al</w>
si tz
servi ces</w>
Struk tur
D o
rei g
guar ante
en cy</w>
asi ati
Unterneh men
Jo hn</w>
trans form
s anc
deca des</w>
ac tually</w>
a den</w>
S ow
ver ein
st en,</w>
ie ve</w>
Bre x
Beh ör
2 -
ser vic
work ing</w>
res ist
conc lu
bil dung</w>
Mor e</w>
M ig
t ent</w>
sozi alen</w>
schw äch
der ung</w>
beli ev
Beding ungen</w>
A t
ver wen
t a</w>
entwickel ten</w>
Sch utz</w>
pro sper
ge m</w>
c ro
ach ieve</w>
Israel i</w>
mo d
lo c
dise as
An ti
on ’s</w>
is e</w>
R ec
ma ß</w>
hi er</w>
es sen</w>
Am ts
sch lag
re in
dar an</w>
cri min
Greec e</w>
B ek
ein deu
Zu dem</w>
Mex i
opport unity</w>
mor al</w>
schwi eri
sch ri
pres id
li ving</w>
heal th
M al</w>
In don
Jahrhunder ts</w>
ju st
I I
Er holung</w>
ün f
ver se</w>
sei ts</w>
p räsid
ne arly</w>
n ation</w>
sur vi
rel atively</w>
ne te</w>
ff en,</w>
Par tner
Invest oren</w>
eigen e</w>
challeng es</w>
ab le,</w>
sm us</w>
sch lag</w>
gemein same</w>
der ungen</w>
Gi ven</w>
kan ischen</w>
in dic
N ig
Herausforder ungen</w>
w at
op tim
g ei
bi et
Mensch en,</w>
qui ck
den ti
nat ürlich</w>
in equ
tri tt</w>
p sych
on e.</w>
fahr en</w>
S im
O pf
Hö he</w>
Asi en</w>
maß nahmen</w>
lo ck
gen au
W .</w>
Ab kommen</w>
sur pl
Pal ästin
B al
individu al</w>
imp lement
deb ate</w>
Dar über</w>
per t
ri cht</w>
pe k
j ähri
Is lam</w>
politi sch</w>
fail ure</w>
Industri el
la un
condi tions</w>
Ein ige</w>
me an</w>
l auf
et y</w>
w äl
j ud
D ec
us es</w>
N am
Gre at</w>
produc tion</w>
ali tion</w>
Sch wi
year .</w>
re gel
pa ar</w>
kin d</w>
buil ding</w>
Wis sen
je de</w>
m ein
er t,</w>
an j
F in
. )</w>
be vor</w>
Mo st</w>
Er klär
zurück zu
st ep
religi ö
ch .</w>
aver age</w>
An stieg</w>
A cc
to p</w>
li ef
follow ing</w>
fi zier
fa ir
f ang
car bon</w>
bring en,</w>
Afric a</w>
li f
eff ort</w>
.  
power ,</w>
n ’t</w>
min im
low -
en ;</w>
Tur key</w>
с т
for man
di sa
Verantwor tung</w>
Interes se</w>
An fang</w>
shi ft</w>
lebi h</w>
im por
group s</w>
er tain
effec ts</w>
ati sti
D em
C ha
j ahr
fir ms</w>
si ven</w>
ab ,</w>
St re
Ex por
ut es</w>
s ”</w>
kore a</w>
hei ß
No twen
vo c
t ac
sub si
prin cip
on e-
leg is
er en.</w>
exp la
cra tic</w>
co ver
Jahrzehn ten</w>
Herausforder ung</w>
lich erweise</w>
H eute</w>
ladi mir</w>
ge -
fo ssi
deci sion</w>
Gef ahr</w>
or it
an halten
Schließ lich</w>
EZ B</w>
ologi cal</w>
al s.</w>
N o</w>
An zahl</w>
Al though</w>
ur en</w>
h ier
f ear
at h</w>
Prei se</w>
Or d
v öl
c lo
Wähl er</w>
Selb st</w>
H a
4 %</w>
throu gh
st eck
K op
wür den.</w>
neh men.</w>
gel ö
countri es’</w>
av ail
wichtig sten</w>
tn er</w>
techn ology</w>
sh ort</w>
fin den</w>
Grupp e</w>
Fri eden</w>
ti k</w>
letz tlich</w>
bri tischen</w>
Kö ni
C ar
st ens</w>
res tor
progra m</w>
neg ative</w>
in es</w>
evi dence</w>
dafür ,</w>
Novem ber</w>
ve au</w>
trä ge</w>
f onds</w>
e gen</w>
consequ ences</w>
basi c</w>
Russi a,</w>
weap ons</w>
tic s</w>
gesam ten</w>
en h
dra w
stra li
shor t-
ernsth af
behin d</w>
K ing
In tegration</w>
hn e</w>
D O
suff ici
Regel n</w>
Kore a</w>
t rei
hat ten</w>
g eri
ber eit</w>
Toda y,</w>
Gener al</w>
ble .</w>
wer tung</w>
secu rit
äu ßer
zi ert</w>
occ up
NA TO
Energi e
k el
ch en,</w>
limit ed</w>
fin den,</w>
con trac
defen se</w>
altern ative</w>
W asser
b at
än dern</w>
wei t
tri lli
subst anti
gil t</w>
ex pres
ens wer
Fortschrit te</w>
rus sische</w>
p ap
ges ag
exc ep
Ver such
will ing</w>
tig en.</w>
f ,</w>
Schwi erig
D on
pri m
con nec
Europe ans</w>
tur ing</w>
ow ing</w>
los sen</w>
hal tung</w>
Um welt
Im mobili
mit tel</w>
ag no
tn eh
rap id</w>
pre dic
dec line</w>
Ang st</w>
wirtschaft licher</w>
c rat
ä um
weal th</w>
sk ill
pro per
Nig eri
Hin blick</w>
wi d
verur sach
under stand</w>
er inn
en ess</w>
T ri
P A
Kom mission</w>
H ung
F lu
v al</w>
ga in</w>
direc t</w>
Verein ten</w>
L ond
s an
groß er</w>
ex per
au tom
Kredi te</w>
succ ess</w>
pover ty</w>
l s</w>
ap par
K rä
Berei chen</w>
th ings</w>
m ing</w>
f t,</w>
er en,</w>
ak u
198 0
to o,</w>
t able</w>
j ob</w>
fel d</w>
certain ly</w>
b rought</w>
Mög lichkeit</w>
A ss
A gen
nich t.</w>
in tern
sozi ale</w>
sho w</w>
and .</w>
Zinss ätze</w>
I r
F ein
B illi
konzent rier
know n</w>
ic s</w>
ef s</w>
e urozon
am a</w>
Minister präsid
Führ er</w>
zeig t,</w>
k am</w>
ad just
No ten
voll stän
sc ale</w>
p oll
ko sten</w>
Th e
ven tionen</w>
jed es</w>
hät ten</w>
c all</w>
Bil dung</w>
wo durch</w>
ph ysi
i a</w>
hei m
en ed</w>
at .</w>
p et
industri al</w>
in n</w>
7 %</w>
war en,</w>
p unk
medi a</w>
glei chen</w>
bes ten</w>
protec t</w>
land s
f an
wen dung</w>
wa ffen</w>
us .</w>
tion en,</w>
bal d</w>
3 ,</w>
so -
s ent
o p</w>
nor m
ü st
kra ft</w>
k ar
bedeu tet</w>
manu fac
li v
j a</w>
fam ili
dar unter</w>
ab ge
Rei he</w>
E reig
er reicht</w>
ah e</w>
Regu lier
Gef ahr
Dis kus
g no
d adurch</w>
appro ach
N utz
L ON
A c
to -
system .</w>
sor g
pro duce</w>
gri ech
er seits</w>
Wettbewer bs
Vor teile</w>
L u
re alisti
bal anc
b wür
b s</w>
St rei
at s</w>
ver w
standar ds</w>
mor t
f low
f ar
al ah</w>
Z u</w>
K ey
Grupp en</w>
Europä er</w>
Beh andl
wor den</w>
tem por
on n
kul tur
experi ence</w>
e b</w>
a dem
Produk tion</w>
I S
Gi pf
k es
Auf merk
langfristi gen</w>
gen der</w>
en ga
da m</w>
bi o
J ul
Debat te</w>
4 ,</w>
z y
we gung</w>
par ts</w>
Prei s</w>
Aus maß</w>
viol ence</w>
stark en</w>
in zwischen</w>
d rit
as k</w>
2 ,</w>
tig es</w>
fl us
er ne
ch es</w>
caus ed</w>
Sow jet
Sin ce</w>
H ei
EU ’s</w>
west lichen</w>
man gel
St äd
D aher</w>
C ol
n ar
ander s</w>
Klimaw andel</w>
Flücht lin
7 ,</w>
je wei
gan zen</w>
O ber
Ver tre
S un
Dies es</w>
Ökonom en</w>
kon trol
Sei ten</w>
Sch o
Frank reich
Entwicklungs ländern</w>
6 %</w>
überhaup t</w>
vul ner
sto p</w>
ro w</w>
pro gres
lä ub
durch aus</w>
cre ating</w>
Pl an</w>
Eben e</w>
A m</w>
we ek
ver pflich
stark e</w>
sa ge</w>
hat te,</w>
er -
ac tivi
sig n
be tri
Fir st,</w>
Antwor t</w>
capac ity</w>
alit ä
Key n
&nbsp ;</w>
ste p</w>
per forman
los sen
fä hi
durch schnit
basi s</w>
b ub
Leb an
C E
Ak tiv
policymak ers</w>
kl ar</w>
genu g</w>
fig h
H ä
F o
d ap
Afri can</w>
system ,</w>
poli cy.</w>
m and
Tran s
Ein zel
wh ol
t ;</w>
ri si
ex ten
ent s,</w>
Verb ün
t “</w>
per man
h eb
Ge winn
out side</w>
inclu de</w>
War um</w>
P lan
ism ,</w>
fe der
ul ation</w>
re jec
dec ade</w>
Stat es,</w>
supp ly</w>
dat a</w>
No t</w>
Develop ment</w>
reduc ing</w>
k t
ev ol
e e
an no
CA M
sch -
le -
itä ts
g as
fig ht</w>
G ra
be coming</w>
accep t</w>
Zentral bank</w>
2 .
war ds</w>
ver tre
gre at
f -
V on</w>
Pro zent
tah un</w>
frei en</w>
cle arly</w>
ы н
ier en.</w>
be tei
Z er
N ahr
201 5</w>
pri me</w>
per sön
he av
- S
kl ar
as sist
Ex per
quanti t
Ver hältn
nat ür
mög lichen</w>
lar ger</w>
gleich zeitig</w>
success ful</w>
p em
l y
ic ally</w>
e ”</w>
d s.</w>
be zieh
Z us
ra t</w>
led ge</w>
Wohl stand</w>
Regier ung
201 1</w>
heu tigen</w>
en heit</w>
CAM BRI
CAMBRI DG
wei ger
hab e</w>
f lu
ex ternal</w>
Ein satz</w>
200 7</w>
zo gen</w>
zer stör
wi se,</w>
ne ten</w>
is ti
environ mental</w>
consi der</w>
Zusammen bruch</w>
EC B</w>
B ü
is mus
Wel t,</w>
Förder ung</w>
3 0
g n
extre me</w>
disc us
consump tion</w>
Zusammen hang</w>
vor her
ter e</w>
bein ahe</w>
an ts</w>
F rü
si ze</w>
h and</w>
as su
Com mun
ass ets</w>
Priv at
Konflik t</w>
Her r
impro ve</w>
re p
fortun ately,</w>
campaig n</w>
Tro tz</w>
2 ,
     
s ?</w>
on d,</w>
gesam t</w>
ge wich
fra me
allow ed</w>
AI D
ier en,</w>
los s</w>
i mag
ff e</w>
ag er</w>
ag ain</w>
Ta g</w>
F all
Er n
6 0</w>
ä r</w>
so- called</w>
se par
konn te</w>
gemein sam</w>
Ver pflich
we ch
stat us</w>
organ is
neh men,</w>
könn te,</w>
Pri or
5 .</w>
strä ger</w>
r ely</w>
produc tivity</w>
month s</w>
militäri sche</w>
i erung</w>
ein ander
Lat ein
H um
cer tain</w>
re pe
fund s</w>
Fol ge</w>
w ähr
indepen dent</w>
ber u
rais e</w>
gebra cht</w>
es sive</w>
In tern
Hil f
finanzi elle</w>
en d,</w>
ei st
c las
ant ly</w>
Akti en
vo te</w>
su s</w>
human it
are as</w>
. "</w>
wahl en</w>
w ater</w>
main tain</w>
lich keiten</w>
ent ing</w>
am ent</w>
Chin a.</w>
s em
j ung
ap az
an gem
scho ol
sch rei
l en</w>
cor rup
Kapit al</w>
sor gung</w>
solu tion</w>
ro o
i cal</w>
Risi ko
Gre ek</w>
Com mission</w>
ver s</w>
sto ck</w>
or ig
kom mun
be .</w>
b ed</w>
as soci
Reser ve</w>
LON DO
LONDO N</w>
un mittel
st ing</w>
nis sen</w>
ing s,</w>
ent ly,</w>
elec tions</w>
ac tions</w>
Yor k</w>
Ar me
An pass
milli ons</w>
enti re</w>
an ’s</w>
d or
ag u
Sau di
Leist ungs
Indi a,</w>
д ы
fo und
b oll
UN -
Frei heit</w>
, ,
setz en,</w>
pur ch
n it
ber ,</w>
Steu ern</w>
Ro h
Infrastruk tur</w>
Au strali
ö ff
langfristi ge</w>
in st
f ru
Kor ruption</w>
A h
200 0</w>
uni versi
appe ars</w>
0 .
д а
s ü
hö her</w>
fra g
distri bu
N ations</w>
K ern
zwei te</w>
soci e
li gi
fa vor
Volks wirtschaft</w>
T ali
lea der</w>
Haushal te</w>
Den noch</w>
tho us
s et
appe ar
Wer te</w>
B la
Arbeitsplätz e</w>
con serv
Econom ic</w>
sover eign
n or</w>
fu el
ein .</w>
effec t</w>
at z
R ich
E ig
struk tur
stabilit ät</w>
li mm
au ster
sich er</w>
help ed</w>
commit ment</w>
ag ri
Latein ameri
Fir men</w>
vi sion</w>
tu res</w>
ma li
kei t.</w>
cri tical</w>
S ing
Japan ’s</w>
Entscheid ung
wh ile,</w>
well .</w>
s erung</w>
mat ter</w>
liber al</w>
expor ts</w>
de ep</w>
bes serung</w>
Präsident schafts
Entwicklungs länder</w>
ück sich
demokrati sche</w>
abo ve</w>
Ho w</w>
B asi
well -
spe zi
beein flus
200 1</w>
sol chen</w>
atten tion</w>
Geld politik</w>
Ergeb nisse</w>
B .</w>
tu re,</w>
stand ard</w>
j e</w>
go ods</w>
ari a</w>
M y
re ach</w>
h or
freed om</w>
bil anz
Um stän
Them a</w>
Ser bi
reco ver
aus gaben</w>
A N
sour ce</w>
p ati
eli min
aktu elle</w>
K l
201 2</w>
1 0%</w>
si eren</w>
es en,</w>
a ir</w>
S um
F u
A l</w>
zeig t</w>
ges ti
fer ence</w>
def aul
collap se</w>
b ly</w>
Mon etary</w>
ad .</w>
M om
wo hl
tun ,</w>
ter s,</w>
o t
fra gen</w>
dec lar
besch äf
B ro
  %</w>
resp ec
on e,</w>
econom ists</w>
Er do
Acc ording</w>
peri od</w>
ism .</w>
imp lic
cooper ation</w>
ab le
größ eren</w>
boo st</w>
W andel</w>
unterneh men</w>
te x
streng th
kl ein
gra du
fir m
co p
Verfü gung</w>
Kon su
wichtig er</w>
qu ali
me et</w>
ein ge
ad t</w>
U K</w>
sin k
futu re.</w>
attack s</w>
S ank
Le hr
Gel egen
provi ded</w>
dr än
wich tigen</w>
vo ters</w>
li ves</w>
infrastruc ture</w>
Inste ad,</w>
rough ly</w>
man ip
in tro
c at
b an
US .</w>
0 ,
v ölk
recogni ze</w>
ma g</w>
en ab
ali ze</w>
ali sten</w>
ade qu
Zentral banken</w>
B ur
völ lig</w>
nor mal
her aus
genann ten</w>
Put ins</w>
Infl ations
Fä llen</w>
ev it
er neu
Ver besserung</w>
о л
prec ed
per f
in deed,</w>
h und
ent er</w>
ac i
führ te</w>
chan ge.</w>
German y,</w>
ver öffentlich
tur ned</w>
qu e</w>
hei t.</w>
ge macht</w>
elec tor
Strategi en</w>
Me tho
Beschäf tig
wi ss
li erung</w>
et z</w>
je dem</w>
geh end</w>
bes sere</w>
be merk
Währ ung</w>
Medi en</w>
um s
m e.</w>
an t,</w>
uni vers
government ,</w>
er a</w>
curr ently</w>
confi dence</w>
Beg inn</w>
8 %</w>
ü b
un employ
ent s.</w>
d lich</w>
ch mal</w>
brau cht</w>
Min der
E l
sich ,</w>
revolu tion
rei fen</w>
le t</w>
is .</w>
in evit
höher en</w>
hous ehol
b onds</w>
Ges prä
setz t</w>
it a</w>
b ark
Kon tin
un ver
u lier
s au
res tric
komp lex
in ste
erkenn en,</w>
Wis senschaft
x im
un er
teil weise</w>
qu ality</w>
f are</w>
es si
dru ck
Iran ’s</w>
sh ed</w>
person al</w>
ordin ary</w>
I mp
Aufmerk samkeit</w>
gesell schaft
H oll
ed ly</w>
bre chen</w>
ar t</w>
Itali en</w>
F ron
A pri
kl as
in ternal</w>
er hö
al ong</w>
Opf er</w>
Geschäf ts
Finan zierung</w>
Fran c
un likely</w>
tro ub
pre par
po th
n omin
manage ment</w>
lo sen</w>
Bei spiel
ul ar</w>
ti ally</w>
exc lu
de d.</w>
competi tiv
cla im</w>
adv an
Tai w
ver ab
unc ertain
men j
li ght</w>
erh af
ehemali gen</w>
des cri
Vi et
Terror ismus</w>
zieh en</w>
u te</w>
parli ament
o ber
market s,</w>
demon strat
continu ed</w>
ber uh
a b</w>
P au
Eff ek
Ad minist
system e</w>
bedeu tet,</w>
be m
Bri tain
we ak</w>
ver kauf
promis e</w>
ier ten</w>
devel op</w>
c anc
authori ties</w>
D aten</w>
Behör den</w>
zi p
sen si
re vi
new s</w>
market s.</w>
m arg
g mati
enor me</w>
defic its</w>
Stu di
Rech te</w>
ö pf
sa y,</w>
institu tional</w>
fü hl
egi tim
N ur</w>
sub jec
rap id
r und</w>
progra ms</w>
pro por
m als</w>
le ’s</w>
la gen
di versi
d oppel
zu dem</w>
un ded</w>
reco very</w>
pro posed</w>
peop le,</w>
lich t</w>
it ing</w>
anno unc
Premier minister</w>
L ab
Haushalts defiz
setz en.</w>
se ek</w>
negoti ations</w>
in tegration</w>
Schl üs
N utzen</w>
sh ap
ran ge</w>
mus lim
mig ration</w>
Staats an
Rück gang</w>
P at
F und</w>
Argent in
y iel
ent -
Un fortunately,</w>
Forsch ung</w>
kommen den</w>
elec ted</w>
de pres
bri tische</w>
v e,</w>
pus h
lei h
corpor ate</w>
bei zu
al one</w>
Verteidig ungs
An aly
wä re,</w>
tol er
tax es</w>
t wo
rat ed</w>
m et
establish ed</w>
beginn ing</w>
ad i</w>
Wahr schein
Stat us</w>
Sp i
zu stellen,</w>
terror ist</w>
selb st
ru c
fä ll
Investi tions
I denti
Aus land</w>
su re,</w>
so on</w>
j i
ilo sop
bo dy</w>
war en.</w>
sch ung</w>
responsi bility</w>
k raten</w>
e h</w>
contra st,</w>
200 5</w>
sch reck
gi bt,</w>
ad ap
P ati
Jahrzehn t</w>
A R
mo vem
fer enz</w>
exist ing</w>
concern s</w>
Obam a’s</w>
valu es</w>
p rü
ah e
Ver lu
Teil en</w>
Putin ’s</w>
Di plom
( the</w>
verschied enen</w>
resour c
franzö sischen</w>
as set</w>
Sek tor</w>
stei ger
ferend um</w>
brau chen</w>
amoun t</w>
ah an</w>
aff ec
T im
extre m
Ex tre
sen sus</w>
it self
inter es
expec t
ble ,</w>
ac tiv
Unabhängi gkeit</w>
R est</w>
responsi ble</w>
off ic
län ger</w>
lei cht</w>
i k</w>
ab .</w>
Jahrzehn te</w>
rel ated</w>
li ed</w>
g t.</w>
fol gen</w>
d as
je den</w>
in .</w>
government ’s</w>
bew äl
addi tional</w>
und ,</w>
quo te</w>
bar .</w>
Verfass ung</w>
200 4</w>
f ein
erhal ten</w>
char ac
ch t,</w>
V ene
über all</w>
ter se
m ärkten</w>
ein gesch
e ?</w>
be völk
acc ording</w>
a sion</w>
Re ligi
Gesund heit</w>
v e.</w>
un ,</w>
stand s</w>
off er</w>
ef ul
an geb
t ür
schwi erig
cy c
Technologi en</w>
Sp ann
h iel
gewähr leist
emis sions</w>
bo om
P f
D er
tri t
t y
la h</w>
b lam
Mon aten</w>
EU ,</w>
D ro
sicher heit</w>
now ,</w>
m id
intel lec
c ou
ausländi sche</w>
an zen</w>
1 7
ri ed</w>
lo wer
legis l
gener al</w>
frü her
Ungleich heit</w>
So ,</w>
Konjunk tur
19 5
through out</w>
t ing
hat te.</w>
eas y</w>
Ver gleich</w>
Nation al
Möglich keiten</w>
G läub
C or
B ericht</w>
z ig
wieder hol
vi li
in si
ier te</w>
Depres sion</w>
Billi onen</w>
stei gen</w>
s al
J ord
Indon esi
In stru
zwei ten</w>
wis sen</w>
k ü
glau ben,</w>
agen da</w>
On ly</w>
Land ,</w>
ör per
wa y.</w>
mer ely</w>
me eting</w>
event ually</w>
danger ous</w>
b y
auß erhalb</w>
alit y,</w>
Gesam t
enor men</w>
argu e</w>
B ef
wes entlich</w>
cul ture</w>
Zei ten</w>
Roh stoff
Iran ,</w>
t ten</w>
op posi
jähr lich</w>
Sec ond,</w>
Cam er
re port</w>
prof ession
ment s.</w>
countr y.</w>
con stra
Ver l
S pe
v o</w>
sol l</w>
moment an</w>
m bo
kä mp
F ern
Ein führung</w>
t ö
sh e
scienti fic</w>
di schen</w>
dam als</w>
contri but
be darf</w>
Welt bank</w>
To des
S ie
Par is</w>
Ko hl
versch är
sch ,</w>
g lichen</w>
f t.</w>
er es</w>
Tur k
Internation alen</w>
Bri tain</w>
Bra z
а й
tr y</w>
ship .</w>
cour se</w>
Inform ationen</w>
I hre</w>
Fähig keit</w>
un ge
test s</w>
oper ation</w>
con duc
cht ungen</w>
Po ten
Hoff n
E L
Auf gabe</w>
power s</w>
poli cy,</w>
m uni
g lich</w>
für wor
blo ck
CAMBRIDG E</w>
k er
fe el</w>
ab kommen</w>
L egitim
militäri schen</w>
en er</w>
emp ha
ell ing</w>
Ni cht
s ätz
ro r</w>
er wi
du e</w>
Re form</w>
D y
Arbei tneh
ün d
wa y
there by</w>
sk ep
sich t,</w>
pp ed</w>
en ds</w>
be kämpf
auf .</w>
m acro
könn ten.</w>
inten si
com mer
St ate</w>
Pe op
Gr öß
tra gen.</w>
sich ts
govern ance</w>
ex ec
an s.</w>
Sim il
Israeli s</w>
mer ek
fin den.</w>
da zu,</w>
Ägyp ten</w>
zeich net</w>
ten den</w>
s un
open ha
op ini
man che</w>
l us
b in</w>
aim ed</w>
ü bri
radi k
o d,</w>
minist eri
inter pre
i ck
examp le</w>
ex ac
G ed
Einkommen s
countr y,</w>
ar men</w>
No w</w>
G renz
ut er</w>
deci sion
au se</w>
and ing</w>
Sarkoz y</w>
Por tu
L ast</w>
201 3</w>
ung “</w>
erne ut</w>
K en
IM F
ren ew
provi ding</w>
pro -
m ass</w>
lan gen</w>
ger en</w>
en s.</w>
d ah
Lond on</w>
invest ments</w>
ent sch
cor e</w>
administ ra
B ec
2 .</w>
е н
ur y</w>
schaff en,</w>
men y
mach t.</w>
kenn tn
inn en
experi enc
vol le</w>
tim e.</w>
b ir
Des pite</w>
revolu tion</w>
li quidi
interven tion</w>
in com
geb il
cut s</w>
bor row
Über ein
zeig en,</w>
wär mung</w>
t ’s</w>
sa ving</w>
requi red</w>
h on
b ür
Ord nung</w>
K at
B is</w>
sieh t</w>
schw ach
quick ly</w>
par tner
p un
derar t</w>
Vene zu
Nahr ungs
M c
Klimaw andel
Emission en</w>
wer k
un ser</w>
per at
p on
at ed.</w>
Er war
Energi e</w>
Argent ini
short- term</w>
ins gesamt</w>
fa ir</w>
er ster</w>
Venezu el
we g</w>
rec ession
er füll
dig ung</w>
Washing ton</w>
Ein ig
to ber</w>
krä f
de fe
an ten</w>
an de</w>
Geg ent
. .
ür f
vol l</w>
tiv er</w>
tier t.</w>
peop le.</w>
hal t</w>
dom inan
K a
C old</w>
5 00</w>
to wards</w>
tig t,</w>
terri tori
te ure</w>
ta il
some times</w>
relation ship</w>
ment s,</w>
g renz
al u
Ver halten</w>
Fehl er</w>
zu gleich</w>
hel fen,</w>
cho ic
Kon sen
Gaz a</w>
200 6</w>
wiss en,</w>
ver än
ur ,</w>
tr ying</w>
spru ch</w>
rau m</w>
lea ve</w>
em bra
F alle</w>
Eig ent
über rasch
st ed</w>
schi ed</w>
schaf t,</w>
grundle gende</w>
Un ter</w>
T e
Me an
Köni g
um .</w>
dar auf,</w>
W in
se chs</w>
lo gi
Th us,</w>
Sch ei
C ri
wen ige</w>
weltwei te</w>
th en,</w>
stimul us</w>
promo te</w>
pre hen
geh ö
fic ation</w>
T radi
sin n
sa d</w>
ge zw
eb ru
cl ass</w>
b ail
ap preci
F ebru
vi er
lab or
geh t.</w>
dest ruc
be tro
O EC
Fra ge,</w>
Fin ally,</w>
D inge</w>
wachsen de</w>
follow ed</w>
ar ily</w>
Zahl ungs
Uni on,</w>
Tre at
Dam it</w>
y a,</w>
th ought</w>
mis s
h r</w>
do m</w>
cir cum
bel ow</w>
Vermögen swer
Unter schie
Da vi
Au st
ill en
deut schen</w>
Lib an
6 ,</w>
k ischen</w>
hin ter
arbei ten</w>
Gesell schaften</w>
( die</w>
ret ary</w>
beg in</w>
b att
ass er</w>
Um setzung</w>
Staat es</w>
Sad dam</w>
R ent
Krieg es</w>
F is
sch em</w>
ra n</w>
organ i
land .</w>
dür fte</w>
betrach tet</w>
Li quidi
B E
ß e</w>
woll en</w>
opport unities</w>
nu k
m ich</w>
for eign
financ ing</w>
es :</w>
d ä
co ordin
appe ar</w>
all .</w>
a- negara</w>
Wahr heit</w>
wieder um</w>
ub ar
tre ff
sp end
finanzi ellen</w>
be en
ap poin
і н
ver trau
ven tion
schle ch
lo t</w>
glob alization</w>
fi x
ech te</w>
S hi
Mein ung</w>
Finanz märkte</w>
Dienstleist ungen</w>
wan ts</w>
ver mut
u ch
li ge</w>
höh ung</w>
des halb</w>
competi tion</w>
East ern</w>
zu g
pa id</w>
p ack
li er</w>
deci sions</w>
Hin sicht</w>
zieh en.</w>
s mo
r ing</w>
mehr ere</w>
mach t,</w>
government .</w>
cor ruption</w>
ander s
Mean while,</w>
H altung</w>
y our</w>
wachsen den</w>
w ing</w>
in de
ge ber</w>
fac ing</w>
ent lichen</w>
br auch</w>
agre ed</w>
Universi tä
M ah
Finan cial</w>
über ,</w>
en ergi
d ul
Ö l</w>
zu folge</w>
ti sch</w>
so ft</w>
oc cur
ff t</w>
en d.</w>
e “</w>
dest ro
ch ron
Jap ans</w>
sion al</w>
seem ed</w>
Q a
Mas sen
F i
An le
wel t</w>
siv ely</w>
resul ts</w>
l ern
ic ro
er in</w>
ei ch
T at</w>
Mon at</w>
Länder n,</w>
Lo ck
En ga
st able</w>
program m</w>
prac tic
establi sh</w>
direk t</w>
auß er</w>
Mod ell</w>
Fran ce,</w>
Da bei</w>
Al li
ur s</w>
tier t,</w>
stab il
ex port</w>
com modi
a zi
Wh y</w>
w ün
sy ri
st ä
nei ther</w>
gesam te</w>
b i</w>
ag o</w>
T ag
Regi onen</w>
Er d
äh r</w>
us ually</w>
th in</w>
t to
suggest s</w>
k em
el ess,</w>
b ab
ans wer</w>
In tel
zi g</w>
ter en</w>
rä um
poth ek
maß en</w>
le ver
dra sti
at ed,</w>
So li
verantwor tlich</w>
reven u
repres ent
in stru
go al</w>
ex am
dap at</w>
commit ted</w>
` `
Wachstum s</w>
woll en,</w>
s po
reduc ed</w>
neu es</w>
gewi cht</w>
fam ily</w>
da ys</w>
d aten</w>
bar ,</w>
Sank tionen</w>
J ourn
F unk
5 -
versch ul
rec ession</w>
internation aler</w>
gel ei
essen tial</w>
ent fern
d liche</w>
con sum
Zwei ten</w>
Pau l</w>
z es</w>
wür den,</w>
ung en
no t
k ein
Ein wander
201 4</w>
sti t
steh t,</w>
palästinen sischen</w>
immedi ate</w>
g l
g am
Syri a</w>
M ubar
G ü
т ы
v inc
ser ve</w>
s la
ber ücksich
Er spar
every one</w>
don ’t</w>
bor der</w>
bie tet</w>
P ap
t aus
sp h
s m</w>
ri chtung</w>
an i</w>
al ing</w>
N ,</w>
Immobili en
De z
B ud
sci ence</w>
ob lig
ger ,</w>
es ;</w>
ep ing</w>
easi ly</w>
conc ep
O hne</w>
L uf
L aut</w>
wa y,</w>
tain ing</w>
sch au
prä sen
gef ähr</w>
f ung</w>
f ern</w>
de ath</w>
bie ten</w>
M ed
K im</w>
z ,</w>
war n
seh en,</w>
mo vement</w>
mist ak
kürz lich</w>
ali sts</w>
Notwen digkeit</w>
H A
r en</w>
f ak
dar stell
cri tic
au p
Portu g
Bevölker ungs
si x</w>
o d.</w>
me tho
hin ,</w>
er zeu
ber t</w>
ar ly,</w>
Kra ft</w>
them ,</w>
ch ance</w>
ang s
W AS
Ide e</w>
tun .</w>
st es</w>
möglich ,</w>
mon e
is o
consi st
comple x</w>
au ßer
Poten zi
NG TO
Mit te</w>
Angri ff</w>
wher e
unter gra
ori es</w>
ges ,</w>
w in</w>
out come</w>
il ater
chan ge,</w>
beträ cht
S inn
Republi kan
zei t
n i</w>
erfolg reich</w>
Wel t.</w>
Fortschrit t</w>
Ch ance</w>
ämpf ung</w>
wirtschaf ts
wer t</w>
re au
hous ing</w>
gro und</w>
erhal ten.</w>
el er
cre ation</w>
Spani en</w>
Program m</w>
teil t</w>
t au
r het
prin cipl
do c
der .</w>
bud ge
att ack</w>
ang el
Vi elleicht</w>
V ölk
Po sition</w>
H än
Con gress</w>
Be wegung</w>
Außen politik</w>
tar get</w>
sti ll
shi f
ologi e</w>
histori cal</w>
bis a</w>
as an</w>
appro pri
an gen</w>
ad voc
Koso vo</w>
H al
verfü g
timm ung</w>
regi er
on y</w>
c ,</w>
an im
197 0
zahl en</w>
unser en</w>
sa ve</w>
re formen</w>
diplomati c</w>
c el
R a
B erich
reduc tion</w>
par tn
m y
kon fron
ent er
Ver ring
Gener ation</w>
Di kt
wis sen
t ung,</w>
simp le</w>
seek ing</w>
l ack
kurz em</w>
i er</w>
g ust</w>
führ enden</w>
schl uss</w>
offen sicht
man ,</w>
kon serv
bar er</w>
a il</w>
WAS HI
Op position</w>
Kon kur
D C</w>
wid ely</w>
sen ti
e ten</w>
WASHI NGTO
CO 2-
Bo th</w>
Bek ämpfung</w>
A spek
spre ad</w>
speci al</w>
sag en,</w>
reach ed</w>
is ol
ges .</w>
expec t</w>
ent gegen
continu es</w>
Zeit punkt</w>
T sch
Schwierig keiten</w>
H ous
wich tig</w>
tiv e,</w>
st y
ship ,</w>
plac ed</w>
increas es</w>
g ran
f il
de d,</w>
am m
agre e</w>
Vor aus
Soli dar
Apri l</w>
y ”</w>
verl or
requi re
pre -
nimm t</w>
ent weder</w>
cor rec
autom ati
Bil dungs
An leihen</w>
20 %</w>
vor gesch
un be
jap anischen</w>
is en
di agno
ar ds</w>
Ver wal
Tro tzdem</w>
199 0er</w>
zi eren</w>
v ast</w>
ori entier
gener ation</w>
ei ,</w>
best ä
b rech
alit y.</w>
I ts</w>
G- 20</w>
F rom</w>
vol ati
dru g</w>
dest ens</w>
Mitglied schaft</w>
Kon gress</w>
Groß teil</w>
wel fare</w>
under standing</w>
som it</w>
soll te.</w>
or ie</w>
ish ed</w>
ab ro
Parlam ent</w>
Mus lim
Indi an</w>
wes en</w>
thous ands</w>
re mo
kl einen</w>
k a
eig erung</w>
contro ll
c s</w>
ali en
Erklär ung</w>
Clin t
Am t</w>
ter m
st ry</w>
sel ben</w>
mo st
k ament
haup ts
Ni veau</w>
Ges etz</w>
Davi d</w>
Administ ration</w>
ur g
sover eign</w>
si a</w>
pa in</w>
har us</w>
gegenwär tigen</w>
franzö sische</w>
ell s</w>
be zeichn
Israel ’s</w>
Be obach
An gebo
schul den</w>
reflec ts</w>
pl ann
erreich en.</w>
work s</w>
w ähl
ter i
sich erung</w>
pat h</w>
moder nen</w>
li c</w>
is se</w>
effici ent</w>
Mitglieds staaten</w>
Hoff nung</w>
H is</w>
G ar
p el
mäß ig</w>
j ourn
conven tional</w>
con ver
centur y,</w>
behavi or</w>
Brasili en</w>
1 6
vern ünf
in spi
cas e,</w>
and a</w>
Menschenrech te</w>
Fak toren</w>
Auf stieg</w>
zusam men</w>
rech te</w>
it s.</w>
competi tive</w>
compar ed</w>
Wettbewer b</w>
Unter such
Schul d
Mo der
Geb ie
9 .</w>
st opp
schw ung</w>
ri es
derar tigen</w>
Th eir</w>
Au gust</w>
lang u
Regierung sch
K alten</w>
Ho ch
de -
ab and
Sch w
Entscheidung sträger</w>
ti li
purch as
lei sten</w>
in ta
bu reau
ass et
Verring erung</w>
Li ke
L auf
z enari
vic tim
te xt</w>
ran ten</w>
ra sch</w>
pla y
over all</w>
fäl le</w>
einzel nen</w>
ar ran
W ohn
Nachbar n</w>
Kon zep
Indi a’s</w>
B li
verständ lich</w>
pri son
el y.</w>
S ach
Produk tions
Bec ause</w>
steh enden</w>
negar a-negara</w>
le ch
eig entlich</w>
dam age</w>
a ge.</w>
a cht</w>
Verhältn is</w>
Unternehmen s
Like wise,</w>
200 3</w>
sch ränk
re duzier
re b
proz ess</w>
inste ad</w>
ich ,</w>
b ond
auth orit
Krieg s
Grund ,</w>
Ber lus
20 .</w>
ther .</w>
regul atory</w>
provi des</w>
nat ure</w>
glob aler</w>
bah wa</w>
Sie g</w>
Plat z</w>
Pal ästinen
д е
wa ge</w>
out put</w>
ch en.</w>
ber s</w>
as sum
Merk el</w>
Bra zi
ver lier
te k
res tru
pre vious</w>
ga p</w>
con tr
at e-
asiati schen</w>
Wahl kamp
Krank heiten</w>
z on
wis h</w>
m ous</w>
il fe</w>
au ch,</w>
al te</w>
N etz
L etz
G ei
Drit tel</w>
suffici ent</w>
ro ökonom
politic ally</w>
mark t
intro duc
gen e</w>
Sec retary</w>
Berlus con
Angel egen
1 2</w>
weiter er</w>
substanti al</w>
region alen</w>
re ds</w>
ens er</w>
bes ar</w>
Tra de</w>
Simil arly,</w>
Kul tur
H inter
D en</w>
Auf grund</w>
An hän
ri eren</w>
ord nung</w>
nation aler</w>
ge ord
en des</w>
ein g</w>
des pre
dar aus</w>
a y</w>
Verein bar
M ech
sp rü
s ent</w>
reflec t</w>
mort g
min bi</w>
et er</w>
Verbin dung</w>
S enk
Palästin enser</w>
tra k
stan den</w>
direc tly</w>
bes itz
be we
arm ed</w>
Zwei tens</w>
Behandl ung</w>
3 ,
“ the</w>
ver li
schw in
israeli schen</w>
geführ t,</w>
dau erhaf
Er höhung</w>
y :</w>
so w
resp ect</w>
prac ti
op s</w>
moder ni
eindeu tig</w>
dri ven</w>
deut sche</w>
WASHINGTO N,</w>
Obam as</w>
trilli on</w>
produc ed</w>
p ag
indu stry</w>
de gre
atastrop he</w>
W all</w>
P unkt</w>
Er stens</w>
Aktiv itäten</w>
vor aus
man chmal</w>
ma d
k lu
gest at
ex port
ek onom
blei ben.</w>
Israel s</w>
Gener al
As sad</w>
Ar men</w>
un t
ti ous</w>
tern ,</w>
sp richt</w>
sanc tions</w>
par t
j ungen</w>
in t</w>
he ad</w>
Waff en</w>
Staat en,</w>
German y’s</w>
Dez ember</w>
0 .</w>
vari ous</w>
th is,</w>
tempor ary</w>
soll te,</w>
prakti sch</w>
orig in
min destens</w>
l ad
inte gri
ex tern
cro ss
avail able</w>
all y.</w>
H and</w>
wichtig ste</w>
te :</w>
shor t
region ale</w>
ques tions</w>
p ul
law s</w>
jüng ste</w>
jen er</w>
g ül
exc essive</w>
conc ern</w>
Wer t
Th ose</w>
St ud
Sing ap
P en
Gol d
Chri sti
19 60
м е
teil en</w>
letz te</w>
l le</w>
kri min
gest al
gan ze</w>
bu y</w>
S oll
N uk
Hy pothek
C our
un gefähr</w>
sc enari
re mark
migran ts</w>
ange l</w>
ab or
Er kenntn
Er folg
Arme e</w>
wi despre
näch ste</w>
fu el</w>
bei ge
Zi vil
Kandid aten</w>
w ent</w>
ver di
thin king</w>
tes te</w>
stron ger</w>
p ain
kei ten,</w>
individu als</w>
er mu
doll ars</w>
da gegen</w>
cru cial</w>
ari es</w>
Per haps</w>
Infrastruk tur
EU .</w>
B ünd
zusetz en.</w>
v es.</w>
tre ffen</w>
technologi cal</w>
succ e
stri k
consu mer</w>
an statt</w>
M ob
Anrei ze</w>
ten :</w>
st om
servi ce</w>
insur ance</w>
Initi ative</w>
wi lli
wh om</w>
two -
gro ß</w>
buil t</w>
Re alität</w>
Organis ationen</w>
Iran ian</w>
B renn
öhn e</w>
viel er</w>
schaff en</w>
kl ar,</w>
gel d
er c
call s</w>
be comes</w>
Di rek
Brex it</w>
3 .</w>
20 0</w>
vic tory</w>
un den
prim ary</w>
incen tives</w>
educ ation,</w>
bo om</w>
bark eit</w>
a ded</w>
Iraq ,</w>
versuch en,</w>
reser ves</w>
haf t</w>
gro und
eb en.</w>
behör den</w>
W il
T ruppen</w>
Rück kehr</w>
Lös ungen</w>
I C
rapid ly</w>
most ly</w>
marg in
le t
go od
eng ine
Tei le</w>
Erdo ğ
w ahl</w>
ung an</w>
show s</w>
shar ed</w>
schn ell
s ätze</w>
re ality</w>
lek tu
kra ft
feder al</w>
er o
drin gend</w>
attemp t</w>
tri g
nah men,</w>
län g
leg en,</w>
kontrol lier
esti tionen</w>
er reichen</w>
differ ence</w>
am i</w>
F onds</w>
Entwickl ungen</w>
über wie
won ach</w>
tier te</w>
sch .</w>
lang sam
in tegra
ik o</w>
es en.</w>
equ al</w>
crat s</w>
beding t</w>
ah ,</w>
Wider stand</w>
Sch wäch
Regier ung,</w>
Pol en</w>
w us
reas ons</w>
gegen sei
Syri an</w>
Organis ation</w>
HI V
Agen da</w>
ti ker</w>
ten de</w>
finan ci
b ran
Sp ra
Schi ck
Nach dem</w>
Mo s
J i
CO 2</w>
Bet ra
' '</w>
vermut lich</w>
mechan is
argum ent</w>
Vertre ter</w>
Americ a,</w>
3 .
ultim ately</w>
rat es,</w>
desig ned</w>
con cent
Spann ungen</w>
S eine</w>
Republi can</w>
An n
5 0%</w>
sp ent</w>
illen ni
ei m
dar an,</w>
circum st
big gest</w>
ator en</w>
as ked</w>
ar en</w>
S al
Ministerpräsid ent</w>
Mech an
techn olog
st al
re ve
niem and</w>
jung e</w>
ger ech
ad alah</w>
V ier
Sp itz
N ic
I s</w>
Bezieh ung</w>
streng then</w>
s ni
poli ce</w>
kei ts
hat ten,</w>
gu e</w>
fa vor</w>
e ;</w>
develop ment.</w>
ber ech
auster ity</w>
ac qu
Tali ban</w>
Konflik te</w>
’ s.</w>
ru m</w>
lau t</w>
führ er</w>
eh en</w>
acc eler
Men ge</w>
Kul tur</w>
H us
Dem on
vor .</w>
r i</w>
boll ah</w>
Verfass ungs
St ell
Produk tiv
wer t
th y</w>
d ung,</w>
Mal ay
An streng
wron g</w>
rich ten</w>
pro ve</w>
pl at
führ ende</w>
at au</w>
a der</w>
R edu
wor th</w>
tr ust</w>
tent eil
st atisti
ro ph
par tly</w>
ob vious</w>
n de</w>
ho od</w>
frame work</w>
ethni c</w>
ch ing</w>
Si cht</w>
Schrit te</w>
Pro f
Lei der</w>
Flüchtlin ge</w>
ob ser
member ship</w>
foc used</w>
commun ic
cas es</w>
Th ail
ä her
ti ef</w>
tak es</w>
res s</w>
erreich en,</w>
differ ences</w>
G or
toda y.</w>
stud y</w>
st s,</w>
sp end</w>
ri o
quantit ative</w>
bem üh
Ver trag</w>
G erich
wen ig
verhinder n,</w>
ver gleich
tig ,</w>
sug gest</w>
sec ure</w>
sch limm
or s,</w>
grundle genden</w>
en jo
dar in</w>
bes te</w>
Sowjet union</w>
M angel</w>
tu re.</w>
st e,</w>
spiel en</w>
sch en,</w>
restru c
pus h</w>
performan ce</w>
gro w</w>
f arm
as sen</w>
Zentral bank
Möglich keit,</w>
Don ald</w>
B ang
sex u
produc tive</w>
pres s</w>
perman ent</w>
merek a</w>
k ali
ev ents</w>
bro ad
Krä fte</w>
King dom
ähn liche</w>
verfü gt</w>
unterstütz t</w>
soli d
lä u
fac tors</w>
erforder t</w>
dest abili
claim s</w>
ausländi schen</w>
ab sen
Medi kament
Altern ative</w>
Ab hängi
y ;</w>
view s</w>
sto od</w>
sow je
sel y</w>
sch lim
k ita</w>
infl ation
haupts ächlich</w>
d uni
at en,</w>
Prinzi pi
Män ner</w>
M är
Gefü hl</w>
т а
y ou
ter ung</w>
sav ings</w>
ges p
figh ting</w>
alis mus
ac tive</w>
Schwellen länder</w>
D ra
р а
up on</w>
k i</w>
frü hen</w>
er b
be droh
T ech
k rank
exec u
Welt krieg</w>
R ett
Lin ie</w>
Durch schnit
y ?</w>
ver bin
star ted</w>
n on
Unterschie de</w>
Technologi e</w>
Sp ain
F at
E mp
C an
Aus bildung</w>
s low</w>
kl eine</w>
ho use</w>
fall en.</w>
e i</w>
e )</w>
bur den</w>
bre ak</w>
au t
adop ted</w>
Ver ständ
Palestini ans</w>
I rel
Bü ro
Al le</w>
zieh en,</w>
v ital</w>
un ilater
steh t.</w>
schaff en.</w>
rhet or
openha gen</w>
ne ar</w>
gew esen</w>
frei e</w>
fol ge
ent s
ab gesch
W ill
UN O
Program me</w>
Ph ili
O c
N och</w>
M ich
zw ing
ti tu
step s</w>
regi erung</w>
konn ten</w>
2008 ,</w>
wä re.</w>
tri ed</w>
ri g
fall ing</w>
er lau
encoura ge</w>
bag i</w>
au ßerdem</w>
au er</w>
Kamp ag
Ex port
Erfahr ung</w>
Dy nam
Über wach
tho do
p le</w>
hund reds</w>
gen en</w>
effectiv ely</w>
angem essen
Wieder auf
Ri cht
Israel ,</w>
Expor te</w>
&#160; &#160;
о н
ru s</w>
perc ei
expen di
collec tive</w>
Wettbewerbs fähigkeit</w>
St att
Hilf s
B R
wh at
sy mbo
sever e</w>
diejen igen,</w>
ci ties</w>
cho ice</w>
S on
Leistungs bilanz
B l
Aus druck</w>
suppor ted</w>
stabilit y.</w>
kan ische</w>
fin ally</w>
der zei
de ath
d as,</w>
b ani
Regulier ungs
Ko h
stoff e</w>
gi ving</w>
gan gen</w>
for ni
enter pri
chang ed</w>
at ur</w>
Kom promis
K ir
zentr ale</w>
w ann</w>
r a</w>
particul ar</w>
on nen</w>
know ledge</w>
i or</w>
gu ten</w>
de v
absen ce</w>
Um fang</w>
Th ir
Statt dessen</w>
Mis s
4 .</w>
wor ds,</w>
widespre ad</w>
u ,</w>
sup posed</w>
politi sches</w>
opp on
ol eh</w>
it s,</w>
ing s.</w>
import ance</w>
früher en</w>
b ing</w>
Zw ec
Schick s
PA RI
Organ iz
H ist
Forsch ungs
Chanc en</w>
work .</w>
l ung</w>
gi bt.</w>
for ward</w>
dar über,</w>
ar tige</w>
T reas
Ch á
zu .</w>
val ent</w>
tran sition</w>
rais ing</w>
minist ers</w>
mar k</w>
imp eri
h an</w>
ein st</w>
al t</w>
Z um</w>
Ver sprechen</w>
Qa ed
Dur ing</w>
Au gen</w>
är m
u k</w>
hä uf
fund ing</w>
con solid
W ür
I I</w>
F S
Americ a's</w>
mer z
fol low</w>
estim ated</w>
US- Dollar</w>
Ni cht</w>
Kredit ver
Entwickl ung
Chá ve
Bla ir</w>
wei s
w ri
schle cht</w>
nah e
m ili
ger e
ativ e,</w>
atast roph
Mex iko</w>
B om
ы л
vi a</w>
u an</w>
ge prä
dar .</w>
com prehen
bilater al</w>
b at</w>
alisti schen</w>
ö tz
x i
to ol
spr üng
glob aliz
elector al</w>
agre em
Nord korea</w>
Lateinameri ka</w>
д і
leben s
for ec
aff air
Saudi -
Chin esen</w>
9 %</w>
zö ger
terror ism</w>
sti eg
speci fic</w>
off en</w>
mö gen</w>
l en
k a,</w>
equ ity</w>
ar an</w>
Sti ll
Spi el</w>
Sch wer
Rah men
stat e-
run ning</w>
nation s</w>
n ütz
mit einander</w>
macro economic</w>
genann te</w>
gain s</w>
con vinc
con sensus</w>
besch le
Verbün deten</w>
Umstän den</w>
St ro
Gipf el</w>
Asi a,</w>
7 -
lich em</w>
l ying</w>
i de</w>
form s</w>
enor mous</w>
b las
as y
U K
Turke y’s</w>
Afric a,</w>
р е
strategi sche</w>
ous ,</w>
indu str
fre qu
ag o.</w>
Zun ächst</w>
O s
verw andel
un able</w>
tro tzdem</w>
tain ed</w>
ow ,</w>
organiz ations</w>
gel ang
al though</w>
Sou verän
K yo
E N</w>
Bank ,</w>
lat er</w>
indepen dence</w>
Waff en
will ing
t )</w>
s qu
m ur
lö sen</w>
et h</w>
comp li
arbei ten,</w>
advan tage</w>
Sch wei
Ph ase</w>
L ohn
In s
H it
D el
Besch ränk
1 00
ul t
polici es.</w>
poin ts</w>
ob en</w>
langfristi g</w>
foreign -
f ör
est s</w>
dem ands</w>
cri ses</w>
W er</w>
Vi sion</w>
Staatsan leihen</w>
S a
Nam en</w>
Kon sequ
Aus sichten</w>
zun ächst</w>
lat est</w>
il .</w>
handel s
deb t.</w>
Produk tivität</w>
IW F
unter schei
radi cal</w>
main ly</w>
er schein
en ’s</w>
eh n
bemerk enswer
Ital y</w>
I mpf
Di alo
Demo cratic</w>
Bed ürf
Basi s</w>
An sicht</w>
An der
w ent
resul ting</w>
k eb
institu tions,</w>
erforder lich</w>
deli ver
I st</w>
Geb i
D ok
wer k</w>
respon d</w>
re publi
pra gmati
it en</w>
inequ ality</w>
else wher
dis ku
O S
will ,</w>
wech sel
r ö
lo sen
l ending</w>
V ladimir</w>
T age</w>
Gre en
An dere</w>
4 0%</w>
1 8</w>
zei chen</w>
strugg le</w>
ro und</w>
niedri gen</w>
ne ,</w>
län ger
häl t</w>
ex tra
entwickel t</w>
economi es,</w>
construc tion</w>
R ak
F ur
E N
Con si
7 0</w>
ur ing</w>
si des</w>
me t</w>
l -
ide ologi
fac es</w>
ex tent</w>
ak ing</w>
B r
Ah mad
wor se</w>
s .”</w>
leg t</w>
isch es</w>
get an</w>
g rupp
decad es,</w>
beste hen</w>
ak h
Bet ei
Be weg
A g
0 -
- based</w>
woll en.</w>
typ e</w>
tes ten</w>
relev ant</w>
prec is
pl ans</w>
p her
mat ters</w>
liquidi ty</w>
e di
deep ly</w>
d rei
ck en</w>
adequ ate</w>
So gar</w>
Nat ur
Demokrati en</w>
Amts zeit</w>
tier ten</w>
sy mp
soll ten.</w>
notwen dig</w>
normal erweise</w>
gelö st</w>
clos er</w>
anders wo</w>
Nuk lear
Kin der
In n
sum mit</w>
da v
any thing</w>
, "</w>
ver an
unterschied lichen</w>
sa w</w>
s ä
s ought</w>
nor mal</w>
mit te
man age</w>
loss es</w>
ide as</w>
expan sion</w>
bevölk erung</w>
berei ch</w>
are a</w>
Währungs fonds</w>
M at
C i
über win
program me</w>
ous .</w>
ou t.</w>
lück licherweise</w>
et ab
ent wickl
di sche</w>
den ken</w>
berei t
a vi
Regu lierung</w>
Bes u
zu gr
tran si
su d
refuge es</w>
pres er
nö tig</w>
minist er,</w>
d ach
constitu tional</w>
commer cial</w>
bewus st</w>
argu ed</w>
an o
Wissen schaft</w>
St elle</w>
Pro to
B en
8 ,</w>
7 .</w>
y n
wi schen
pro duzier
li fer
innov ation</w>
entscheiden der</w>
associ ated</w>
Verl ust</w>
M ul
Ide en</w>
wi se</w>
trau m</w>
tig te</w>
region .</w>
or .</w>
man aged</w>
der er</w>
Gleich zeitig</w>
Beh aup
B ern
Ara b
we hr
w rit
um zu
tig ten</w>
strategi schen</w>
recei ved</w>
multilater al</w>
k at
jo in</w>
im posed</w>
ic k</w>
comp lic
W ill</w>
S ache</w>
Mon ate</w>
Konsen s</w>
For derungen</w>
zukünf tige</w>
wh el
treat ment</w>
technologi es</w>
show n</w>
ran gi
protec tion</w>
pos es</w>
enn tn
auth ority</w>
ack now
Verb rei
Th ough</w>
S zenari
Enga gement</w>
к е
verhinder n.</w>
v it
tig t.</w>
t op
soli di
sch üt
pursu e</w>
mus s.</w>
mensch lichen</w>
m iddle</w>
komm t,</w>
hän gt</w>
househol ds</w>
größ tenteil
frü her</w>
ex is
arbei ter</w>
Th at
Regierungsch efs</w>
Pati enten</w>
PARI S</w>
Ger ech
BIP -
st en.</w>
las sen
etab lier
bet on
assist ance</w>
achiev ed</w>
Da zu</w>
sch wei
proper ty</w>
li t
is tic
im possible</w>
h ung
g ruppen</w>
f .</w>
eh old</w>
Tran spar
T od</w>
P eri
E st
1 1</w>
ver teidig
there fore</w>
ten den
system ati
socie ties</w>
produc ts</w>
proble m.</w>
n den</w>
lim its</w>
leist ung</w>
k en
help ing</w>
ges pro
fre und
economic s</w>
comp any</w>
charac ter
bekann t</w>
w on</w>
verl oren</w>
rema ined</w>
public -
pos ing</w>
leg en.</w>
inf ec
har m
geleg t</w>
el ,</w>
economi es.</w>
St ur
B as
Aus wei
z one</w>
vulner able</w>
ter t</w>
sol v
pric es,</w>
hol ding</w>
him self</w>
h ur
erle i</w>
depen ds</w>
com pen
c ity</w>
ass ess
an schließ
Verlu ste</w>
Them en</w>
Mus har
L age,</w>
surpl us</w>
me dic
in ci
get ting</w>
democra cy,</w>
ch a
betei li
Vor stell
Taiw an</w>
Regi mes</w>
Jun i</w>
Com mission
än der</w>
zusätz liche</w>
v es,</w>
toda y,</w>
stimm ung</w>
st ak
s “</w>
rei se</w>
possi bility</w>
kon vention
gre g
environ ment</w>
d :</w>
Iraq i</w>
zur ück</w>
view ed</w>
ur sprüng
tal ks</w>
rec ord</w>
great est</w>
freed om
fi k
fac ilit
dar um</w>
curr ent-
au tor
add af
W un
Liban on</w>
Leist ungen</w>
Hin der
Geh eim
Be am
An sicht,</w>
200 2</w>
äß ig
weap on
st en
sig n</w>
rat es.</w>
or g
m eine</w>
i ri
har dly</w>
flow s</w>
ehemali ge</w>
current- account</w>
ati s
Zi vili
Ver brechen</w>
Re ag
Indi ens</w>
sier te</w>
re alen</w>
p emer
mus s,</w>
lin es</w>
li gence</w>
inv est</w>
ie f</w>
ge tro
dou b
co alition</w>
b ai
Flücht ling
Ereig nisse</w>
Arbeits losen
tradition ellen</w>
tek tion
t ou
spi ri
rep ren
ma r</w>
li mit</w>
imp lement</w>
gewor den</w>
f ach
erkenn en</w>
er maßen</w>
al ter</w>
afri kanischen</w>
ab ri
Währ ungen</w>
Kin dern</w>
ti scher</w>
stand s
princip le</w>
polici es,</w>
pl ötz
medi cal</w>
ir ing</w>
gen cy</w>
fac ed</w>
erhal ten,</w>
d ab
busin ess
ali forni
al loc
T u
Saudi- Arabi
Ro bert</w>
N az
All gem
ung sp
signific antly</w>
over whel
ment e</w>
es ien</w>
en tial</w>
agre ements</w>
P ub
Europ a,</w>
Erfahr ungen</w>
Aus gab
tä u
t old</w>
sei en</w>
n om
län der
le m
inte g
hn ung</w>
größtenteil s</w>
belie f</w>
al lies</w>
Pro gno
D P
wirtschaft lich</w>
wei s</w>
soll .</w>
so for
jähri gen</w>
ch t.</w>
ar y.</w>
Universi ty</w>
Stärk ung</w>
Stu die</w>
Luf t
Kri sen</w>
soll ,</w>
pres ent</w>
eingesch ränk
besteh enden</w>
Z ins
St eigerung</w>
St adt</w>
Ma ß</w>
Glau bwür
Gesetz e</w>
& amp
um -
tion ary</w>
ther ap
te te,</w>
ow ned</w>
kn ü
hous ehold</w>
gesch ei
folge dessen</w>
en able</w>
da h</w>
announc ed</w>
Bei trag</w>
3 0%</w>
versuch t,</w>
re du
problem s.</w>
pla yed</w>
mid -
li zier
iz ed</w>
fra gi
eb en,</w>
ben den</w>
Wahrschein lichkeit</w>
Su per
Palästinen ser
Lock erung</w>
Bo tschaft</w>
zurück ge
sto ck
re gu
pro jek
i -
größ er</w>
f ell</w>
es ?</w>
eri e</w>
dict ator
blei ben,</w>
ber ich
appropri ate</w>
ab solu
R at
P unk
O ur</w>
Mushar ra
Con stitu
Al -
schwieri g</w>
lin ien</w>
gar an
erheb lich</w>
W ol
W eg
L eute</w>
Fre m
Fall s</w>
Exper ten</w>
zunehmen de</w>
sei ,</w>
sec uri
possi ble.</w>
könn ten,</w>
glei che</w>
fa il</w>
dou bt</w>
ach tet</w>
UN O</w>
Pop uli
Finan zier
Def l
st em
ru ral</w>
mis si
g ren
end lich</w>
di ver
consider ed</w>
bro ader</w>
M ik
G ul
Abhängi gkeit</w>
wi t
st age</w>
per cent
kur bel
Prinzipi en</w>
G as
ul y</w>
steigen den</w>
st äd
pl au
nahe zu</w>
griech ischen</w>
enst off
centur y.</w>
ah me</w>
Uni on.</w>
ver sorgung</w>
unterstütz en</w>
st aat</w>
sm aller</w>
religiö sen</w>
ni eder
look s</w>
k li
ho her</w>
f el</w>
berei t,</w>
b ad
Tats ache</w>
Mexi co
H ong
GDP .</w>
Egyp t</w>
Über dies</w>
tig .</w>
promis es</w>
particul ar,</w>
hei t
f em
en ded</w>
dri ve</w>
Person en</w>
Diskus sion</w>
D enk
Ar ten</w>
A no
wün sch
whol e</w>
un less</w>
tre ten.</w>
th ough
t ap
sec ara</w>
medi zin
in e,</w>
bei tragen,</w>
Republi c
K apaz
zusetz en,</w>
vi ously</w>
tra ding</w>
tor s,</w>
staat licher</w>
kre di
jap anische</w>
der s,</w>
W e
Phili pp
Auswei tung</w>
viel mehr</w>
tal k</w>
stat e.</w>
offizi ellen</w>
invest ment,</w>
gehö ri
e ase</w>
Menschenrech ts
M illenni
Krem l</w>
Anle ger</w>
tri eben</w>
ter s.</w>
sier t,</w>
rich tige</w>
m utz
ga ve</w>
fin al</w>
fa ster</w>
commun ist</w>
an a</w>
Milit är</w>
Defiz ite</w>
Co unc
Bush -
verab schie
stat es,</w>
sam m
re ti
rais ed</w>
lat er,</w>
il lu
com e.</w>
bo ok</w>
an t.</w>
Stim men</w>
Legitim ität</w>
с а
west liche</w>
sier en.</w>
restor e</w>
regar d</w>
pri ori
ord n
f ying</w>
elec tric
cop e</w>
chil d</w>
ch arg
be weg
Verbin dungen</w>
System s</w>
Stat t</w>
S te
H u
Beschäftig ungs
sy n
sur ing</w>
stra tion</w>
s car
reser ven</w>
par tei
mor e,</w>
m ir
ir anischen</w>
gen ie
el n</w>
eb ung</w>
bestimm te</w>
bes tim
Strei t
D at
Bil l</w>
Beschäf tigung</w>
zeu g
work ed</w>
terse but</w>
regul ation</w>
on going</w>
manufac turing</w>
gestell t,</w>
for dern</w>
ex erc
bar ri
Wissenschaft ler</w>
Un sicherheit</w>
F er
Angel a</w>
willing ness</w>
subjec t</w>
reach ing</w>
menj adi</w>
jewei ligen</w>
go es</w>
entscheiden de</w>
Schicks al</w>
Kom bin
ähn lich</w>
sei .</w>
mak roökonom
lea ving</w>
h it</w>
ent repren
M ärkten</w>
Geg ner</w>
1 7</w>
qu ite</w>
opini on</w>
ne ed
m einer</w>
im pres
gewis sen</w>
g ünsti
chang ing</w>
Vor sitz
Spitz en
Sch ätz
Gren ze</w>
Atom waffen</w>
unterstütz en.</w>
so .</w>
projec ts</w>
proc ess.</w>
mo un
market .</w>
lan tic</w>
jen en</w>
imp lies</w>
im pose</w>
ier t.</w>
genau so</w>
ge geben</w>
de posi
bo ok
b as</w>
Versuch ,</w>
Turk ish</w>
Russ land,</w>
Qu ar
Potenzi al</w>
N or</w>
Groß en</w>
un wahrschein
un preced
ti ka</w>
priv ati
fa i
den den</w>
Studi en</w>
Krem lin</w>
т е
tu red</w>
ma xim
lo ans</w>
islam ischen</w>
geführ t.</w>
ed -
ander es</w>
O ver</w>
O k
Musli ms</w>
J er
H ong</w>
H is
An erkenn
verfü gen</w>
tig keiten</w>
schi en</w>
lie f</w>
heiß t</w>
dä mm
Verständ nis</w>
Par tner</w>
K lu
Commun ist</w>
ähn licher</w>
world wide</w>
univers al</w>
st rei
re min
pert i</w>
ne y</w>
ho h
bal ances</w>
at om
W asser</w>
Verbrei tung</w>
Ukrain e,</w>
Ren di
Mo sk
Finanz institu
Erwar tungen</w>
Al so</w>
A be</w>
1 5
1 4</w>
( wie</w>
zei gen</w>
wissenschaft lichen</w>
steigen de</w>
si n</w>
sam a</w>
protec tion
prospec t</w>
market ,</w>
ju di
bank s,</w>
Z y
Rent en
Kore a,</w>
Janu ar</w>
Industri e
Aut or
tr uly</w>
t ari
stat es.</w>
saf e</w>
niem als</w>
m ed</w>
legitim acy</w>
hand ,</w>
back ed</w>
an erkann
Kri sen
F ac
' t</w>
where as</w>
verbesser n.</w>
st ro
schn eller</w>
poor est</w>
es ”</w>
dep end</w>
Kur s</w>
Ano ther</w>
ziel e</w>
ub ahan</w>
kon tro
k ische</w>
inn en</w>
hat ten.</w>
ear lier</w>
deci ded</w>
caus es</w>
ar d
allgem einen</w>
alism ,</w>
agen da
again ,</w>
T em
R adi
Fu ß
w ages</w>
ur ban</w>
sp ace</w>
sol cher</w>
sion s.</w>
mon it
impro ved</w>
ier t,</w>
ic o</w>
gh ten
den noch</w>
defin i
deb t,</w>
cle ar
aufzu bau
ap a</w>
aff ord</w>
ab ziel
Intern et
Grün de</w>
Famili en</w>
B ah
viol ent</w>
sustain ed</w>
soli dar
si e,</w>
ship s</w>
saf ety</w>
high est</w>
h aus
ein iger</w>
demo graph
bro ad</w>
Ma i</w>
Innov ation</w>
unterschied liche</w>
thin k
precis ely</w>
pre fer
p le
ju ga</w>
import ant,</w>
f und</w>
erwei le</w>
di ed</w>
Wo chen</w>
Produk te</w>
N ul
Lebens mittel
Im por
Gef äng
Bel ast
200 9,</w>
überwie gend</w>
zuneh men.</w>
ver letz
un ig
tiv e.</w>
targe ts</w>
stell te</w>
societ y.</w>
projec t</w>
pre dict
meas u
laun ched</w>
kommen s</w>
ge mon
ep i
des sen,</w>
contr ary,</w>
cal cul
angeb lich</w>
Terror isten</w>
Nahrungs mittel
Bu ch</w>
wor st</w>
umfassen de</w>
tern .</w>
stand ,</w>
re di
man ag
i ded</w>
gesell schaft</w>
gehör en</w>
fe at
continu ing</w>
capit a</w>
alisti sche</w>
al ed</w>
Unterneh men,</w>
Re cht
Po si
Kon tro
Inter vention</w>
Er weiter
ti an</w>
stat e,</w>
sor gen,</w>
reich er</w>
re ferendum</w>
n enn
mem per
gener ate</w>
er leich
deli ver</w>
borrow ing</w>
ad s</w>
Sch aden</w>
Regi on
Produktiv itäts
Kapit alismus</w>
Gegent eil
20 -
tu ri
tren d</w>
tor ,</w>
nachhal tige</w>
fre i</w>
f ill
democra cy.</w>
b un
No t
M äch
In stabilität</w>
Diplom ati
An ders</w>
wan ted</w>
sicher ungs
op ol
n en,</w>
cut ting</w>
comprehen sive</w>
ch em
b ond</w>
ank en</w>
and -
Wo che</w>
Wi th
W ege</w>
Par li
Internation ale</w>
Hong kon
vol um
sty le</w>
steu er
pro min
p ak
k at</w>
dis cipl
Stabilit ä
Kri tik</w>
Kon ferenz</w>
J ob
Anstreng ungen</w>
zü gi
to t
sel be</w>
ph ilosop
mom ent</w>
contribu te</w>
ans wer
Staats -</w>
Afghanist an,</w>
( or</w>
äu ß
x is</w>
region ’s</w>
re ac
pro tes
principl es</w>
jem als</w>
in her
gi r
ei l</w>
determin ed</w>
Senk ung</w>
NATO -
Grün den</w>
Fis kal
Er wärmung</w>
zu stellen.</w>
sier en,</w>
l ass</w>
every thing</w>
depen dent</w>
Ungleich gewich
In folgedessen</w>
Ein nahmen</w>
E A
Bo sni
198 0er</w>
shar p</w>
setz ungen</w>
s atis
i es</w>
g ol
ausreich end</w>
ati ver</w>
amerikan ischer</w>
Sor gen</w>
C ub
3 00</w>
what ever</w>
sp rich
nam e</w>
la y
itself .</w>
fri end
einzi gen</w>
be handel
be ge
asi en</w>
agri cultural</w>
Y o
Herr schaft</w>
F ahr
A K
201 0,</w>
war s</w>
tro ops</w>
scho ol</w>
schle chte</w>
sch utz
promis ed</w>
no t.</w>
nach zu
happ en</w>
fac tor</w>
denk en,</w>
befin den</w>
be vor
any one</w>
Verpflich tungen</w>
Unter schied</w>
Kore an</w>
Consi der</w>
Är a</w>
tion ing</w>
s es,</w>
recogni zed</w>
peri pher
nis ,</w>
lear ned</w>
intellec tual</w>
fre m
en falls</w>
der s.</w>
dang er</w>
allow ing</w>
W ladimir</w>
UNO -
Industriel ändern</w>
H ill
Doll ars</w>
Deutsch lands</w>
zu vor</w>
with draw
vi ce</w>
ver stehen,</w>
un tern
sou thern</w>
solu tions</w>
sier ten</w>
se perti</w>
prä sent
prepar ed</w>
politi k,</w>
n etz
mo tiv
förder n.</w>
dab ei,</w>
bo t</w>
b ü
allgem ein</w>
aggres sive</w>
adv is
Un ru
Tre ffen</w>
E th
193 0
soll ten,</w>
sch uss</w>
rul ing</w>
niedri ger</w>
kol lek
g ten</w>
des per
afri ka</w>
Y et,</w>
With out</w>
Wir d</w>
Washing t
I mm
F äl
äußer st</w>
zuneh men,</w>
twen ti
on es</w>
lear n</w>
le ben,</w>
dis crimin
bri d
all -
F il
Camer on</w>
C C
zu fried
wi der</w>
verein bar
under lying</w>
stud ents</w>
struc ture</w>
sp ap
s es.</w>
parliament ary</w>
li z
inves tig
ger ing</w>
fi ci
col le
busin esses</w>
bu t,</w>
behör de</w>
accoun ts</w>
Tren d</w>
Hous e</w>
E urozon
D om
work ,</w>
vir tually</w>
ur es,</w>
undermin e</w>
tre ten,</w>
te urop
st ory</w>
sch em
look ing</w>
happen ed</w>
de fl
cent er</w>
af ter
ad ded</w>
Verteidig ung</w>
Rus sen</w>
L a
Krank en
Gesprä che</w>
Entscheid ungs
Brazi l</w>
199 9</w>
. &#160;</w>
( in</w>
w ettbewer
t ask</w>
mög liche</w>
mon th</w>
i ze</w>
enti rely</w>
bring t</w>
T wo</w>
Einig ung</w>
Ch ira
60 %</w>
sour ces</w>
produk tion</w>
go sla
fall en,</w>
co -
candid ate</w>
bag ai</w>
ach frage</w>
Kon gres
B ran
unterstütz en,</w>
um ul
pro ved</w>
notwen dig
institu tions.</w>
eri cht
cho ose</w>
bel ast
au to
Kombin ation</w>
K u
Hä us
Fron t</w>
Dro gen
Bes timm
Ökonom ie</w>
weiter es</w>
per spec
inclu des</w>
guarante e</w>
gesetz t.</w>
entwickel n</w>
el li
des to</w>
be obach
b ,</w>
aus geh
ar ti
ank s</w>
Süd korea</w>
R et
Bei de</w>
An sichten</w>
ä dig
pro du
p s</w>
ou t,</w>
offen sichtlich</w>
mes sage</w>
lie ß</w>
er enden</w>
en ough
dist inc
di alo
compen s
com men
chil d
USA .</w>
Treas ury</w>
So ci
Fähig keiten</w>
öffent licher</w>
su res</w>
recei ve</w>
inta h</w>
ho ff
gen :</w>
er geb
consider able</w>
bo und</w>
arm y</w>
Wirk ung</w>
Um feld</w>
M äd
Krank heit</w>
Def en
wi esen</w>
sch merz
region s</w>
ra tional</w>
poten tially</w>
o li
n ut
har t</w>
fähi g</w>
dem ,</w>
bes ei
St ag
B -
Auf bau</w>
8 0</w>
Ü ber</w>
wieder her
sen ior</w>
populi sti
et te</w>
er ungen</w>
do cum
behaup ten,</w>
ac adem
Zwei fel</w>
N un</w>
Ira k
1 4
Über gang</w>
w ag
sur v
stron g
om bi
offizi elle</w>
i d,</w>
h ,</w>
er hol
di min
ar e,</w>
Tag es
T reib
Re al
Mär z</w>
Li ke</w>
Glaubwür digkeit</w>
GDP ,</w>
Bo li
An zeichen</w>
vollstän dig</w>
ten en</w>
schul dung</w>
prof it
percent age</w>
muslim ischen</w>
lä ufig</w>
kill ed</w>
in o
h ad
expla in</w>
di ger</w>
at titu
allgem eine</w>
all zu</w>
Veränder ung</w>
Verbrauch er</w>
Mo ham
F est
politic s.</w>
now .</w>
it alien
histor ischen</w>
fre e-
decad es.</w>
cu stom
combin ation</w>
began n</w>
bank rup
ang ,</w>
al em</w>
ag greg
Schlüs sel
Ost europ
I S</w>
Famili e</w>
Best and
verschied ene</w>
um bi
ri gi
prosper ity</w>
moder ne</w>
mo ving</w>
kün dig
kl ang</w>
in en</w>
h .</w>
genom men.</w>
forder ungen</w>
et ri
en suring</w>
ein zig
doll ar
be wirk
ad ox
T P
Mitgli ed</w>
Jahr es
E ing
Dynam ik</w>
war ming</w>
perc ep
kri ti
distribu tion</w>
develop ment,</w>
controll ed</w>
au ßen
am s</w>
O per
Green sp
G l
( S
Än derungen</w>
t went
sel l</w>
pro tests</w>
le mm
j um
indi schen</w>
hät te.</w>
government s,</w>
g ü
fo li
des ire</w>
d less</w>
comp on
an te</w>
Sol daten</w>
R aum</w>
Nat ur</w>
Kom muni
E S
B las
AID S
( oder</w>
über mäß
Ökonom ien</w>
wei ß
visi t</w>
verb unden</w>
so und</w>
securit y,</w>
re vers
ma ge</w>
m ess
kon f
gesch i
gener ally</w>
frei lich</w>
dis rup
b lu
ation en,</w>
an geht,</w>
Wert pap
Jul i</w>
Institu te</w>
zu tage</w>
unabhängi g</w>
sch lu
prospec ts</w>
pen sion</w>
over -
other s.</w>
om en
ol as</w>
län e</w>
less on</w>
hear t</w>
gesetz t,</w>
ge zeigt,</w>
erklär te</w>
defiz it</w>
ab sol
P aci
M ehr</w>
J usti
He al
Bür gern</w>
Ak tion
te dly</w>
spiegel t</w>
rat ing</w>
prei s</w>
lok alen</w>
ließ en</w>
g old</w>
fl üsse</w>
ex chan
erneu er
dise ase</w>
Wirtschafts wachst
Vor schlag</w>
Vermögenswer te</w>
Stre et</w>
Steuer zahl
Ma y</w>
I P
Gewinn e</w>
Beg ri
un möglich</w>
ter ed</w>
sol di
s hr
ri chtungen</w>
pro vo
on ed</w>
model s</w>
gegenwär tig</w>
ge ments</w>
di ox
deci de</w>
autor it
Jahr en,</w>
Er inn
AID S</w>
w and
versch aff
threat s</w>
ra dic
lä ss
k örper
it ze</w>
im men
ck ,</w>
candid ates</w>
ag ue</w>
Th er
Russi a.</w>
Republikan er</w>
L eh
Ar tik
versu cht</w>
t ”</w>
sta un
propos al</w>
other .</w>
nah m</w>
man chen</w>
jähr lichen</w>
invest ment.</w>
form al</w>
erhöh en.</w>
e .”</w>
ch en
be f
ander em</w>
ahe ad</w>
Män n
M ann</w>
K atastrophe</w>
   </w>
tran spor
t am
sec re
peac eful</w>
nat ur
health -
führ ten</w>
dies el
diejen igen</w>
des er
consum ers</w>
Stra f
S pain</w>
Dec ember</w>
Bern ank
Bau ern</w>
ä gyp
view ,</w>
stän de</w>
in -
glau b
en lar
conserv ative</w>
combin ed</w>
Zun ahme</w>
Y u
Treat y</w>
He z
Arbeitsp lat
Arbeitneh mer</w>
Anhän ger</w>
y a.</w>
sion s,</w>
law ,</w>
inten sive</w>
il leg
i ed</w>
hin dern</w>
herrsch t</w>
gel ing
es )</w>
easi er</w>
dro ht</w>
den ce.</w>
auf geb
War en</w>
Universitä ten</w>
L ag
Gelegen heit</w>
z .</w>
wichtig ,</w>
s ).</w>
proble mati
plac es</w>
no t,</w>
loss en,</w>
id a</w>
g lie
defaul t</w>
caus ing</w>
beding ungen</w>
authorit arian</w>
an fäl
V oll
Musli me</w>
Mit tl
M ut
Ge werk
Com mitte
Braz il,</w>
A p
un ru
tion sk
sor gen</w>
quar ter</w>
off ered</w>
erh iel
declar ed</w>
abili ties</w>
Vol k</w>
O ther</w>
Mitglie dern</w>
M and
L öhne</w>
Flu g
East ,</w>
A D
typ ically</w>
trä ch
sp ie
seh en.</w>
rech ter
me ant</w>
li fe
invol ved</w>
i ’s</w>
experienc ed</w>
commodi ty</w>
b ust</w>
aus gesch
Sch utz
S il
Republi k</w>
Per spek
Mom ent</w>
L e</w>
BE R
B ag
ul ar
m idd
legitim ate</w>
kommun istischen</w>
justi ce</w>
in ess</w>
f ers</w>
ex plan
es ten</w>
es cap
dra w</w>
ci es,</w>
b es</w>
arbei ts
ar ms</w>
Rez ession
R au
Nutz ung</w>
Mein ungs
Identi tät</w>
ver wal
unpreced ented</w>
tru th</w>
st em</w>
populi st</w>
per sist
of t
mensch liche</w>
m us</w>
kur z</w>
gegenwär tige</w>
g one</w>
för dern</w>
comple te</w>
be hinder
Wel th
Souverän ität</w>
Re chn
Politi k,</w>
y .”</w>
wohn er</w>
te ach
shor t,</w>
off ice</w>
m ern</w>
er s’</w>
en ken</w>
c ent</w>
ar ri
a j
S w
un denen</w>
securit y.</w>
schaf t.</w>
los ing</w>
k auf</w>
ic ally,</w>
be wahr
be grün
bank ,</w>
ar ing</w>
Anerkenn ung</w>
6 .</w>
v eh
v acc
tä ts
per son</w>
niedri g</w>
hel fen</w>
fäll t</w>
exc e
dies ,</w>
bei ,</w>
Vor teil</w>
Sub ventionen</w>
Schei tern</w>
Regier ungen,</w>
Lauf e</w>
J ust</w>
Hill ary</w>
F T
E mpf
öffent lich</w>
zurück .</w>
percei ved</w>
per ubahan</w>
lif e.</w>
gra fi
gegen über
entwickel n,</w>
cra cy</w>
constra in
bestimm ten</w>
bar u</w>
ant ly,</w>
Städ te</w>
St abili
Re de</w>
Indi en,</w>
Eng land</w>
Arbeits kräfte</w>
а с
ver he
ts etz
tr a</w>
tax pay
pa ying</w>
o g
mor e.</w>
in comes</w>
gestell t.</w>
e ch</w>
abhängi g</w>
Wirk lichkeit</w>
Ver sch
T al
Prior ität</w>
Peop le</w>
Ok tober</w>
K ub
Ho wever,</w>
Bi o
Arbei ter</w>
( which</w>
än de</w>
wissenschaft liche</w>
un an</w>
tan e
si scher</w>
s äm
lead s</w>
kep t</w>
impro ving</w>
für ch
expect ations</w>
biet en,</w>
Ver trag
T un
Prinzi p</w>
Keyn es</w>
Fra u</w>
2 7
1 1.</w>
zw angs
subsi dies</w>
soll en.</w>
row n</w>
presid ent,</w>
plau si
ne ut
m äh
li st</w>
lei den</w>
hr en</w>
haf te</w>
gemein sam
gehör t</w>
f at
der i
an an</w>
aku kan</w>
US- Präsident</w>
So cial</w>
No bel</w>
Man che</w>
Gesch ä
For eign</w>
C lim
Bei j
198 9</w>
wei st</w>
waff en
u si
u h</w>
star ting</w>
stabilit y,</w>
spec ul
si eben</w>
s ache</w>
pla ying</w>
nuk lear
interest s.</w>
f low</w>
f ar,</w>
en . </w>
civili an</w>
car ry</w>
bring ing</w>
an den</w>
R het
H el
Gro w
vor über
the ory</w>
promo ting</w>
ous ly,</w>
or ity.</w>
moder ate</w>
establish ment</w>
erhö hen</w>
er mor
er lang
duni a</w>
degre e</w>
aus wei
ak i
Ver such</w>
Um gang</w>
Moder ni
Klimawandel s</w>
Eff izi
Argentini en</w>
Über gang
Öl preise</w>
u c
tran sat
sti c</w>
ong -
li ty</w>
kämp fen</w>
ed ing</w>
Sch uld</w>
L it
J etzt</w>
Größ e</w>
Cour t</w>
C y
An satz
under stand
possi bly</w>
o st
it z</w>
er weiter
enc es.</w>
en den
br in
be waff
arab ische</w>
Vor stellung</w>
T el
Konsu m</w>
K ä
EC B
1 2
wei te</w>
vo ted</w>
strategi e</w>
sp ür
ro lle</w>
per su
ow ner
oft mals</w>
geo political</w>
ein her
dür f
dri ving</w>
bank s’</w>
ativ e.</w>
any ak</w>
R igh
Islam ist</w>
H af
Finanz minister</w>
199 0</w>
д а</w>
stän dig</w>
profi tieren</w>
pro lifer
pro gno
off ers</w>
ly mp
industri es</w>
f at</w>
exc ess</w>
ew s</w>
b lin
anc es,</w>
an er</w>
Zu kun
Z war</w>
Viet nam
Präsident schaft</w>
O der</w>
Mex ico</w>
Maß e</w>
Kommuni k
Kampag ne</w>
&nbsp; &nbsp;
zu zu
st rau
ri es</w>
ma cht
fre u
defin ed</w>
S har
In dem</w>
wer ke</w>
war m
ut ed</w>
tr on
tats äch
steh ende</w>
siv e,</w>
li ter
größ erer</w>
ges und
equ ally</w>
ch e,</w>
bor n</w>
Vol k
S k
Russi ans</w>
Proble men</w>
Pakist an,</w>
Ko alition</w>
I ron
Be fürwor
Ak teure</w>
zur eich
wohl hab
tor s.</w>
repres ents</w>
pric es.</w>
open ing</w>
nutz en,</w>
necess arily</w>
emb ang
ein gesetzt</w>
eg en.</w>
effici ency</w>
decision -
dar ,</w>
believ ed</w>
amoun ts</w>
accoun t
Währungs union</w>
Stat es.</w>
N ich
Har v
Finanz system</w>
Deutsch land,</w>
C a
A lex
8 0%</w>
wir d
sp read
re ak
prev ail
pl es</w>
kon kur
kon kre
inv estitionen</w>
innov ative</w>
geschaff en</w>
f ar-
co ver</w>
cas es,</w>
bes u
West ens</w>
Rhet ori
P an
M ilo
Gra d</w>
Gleich gewicht</w>
Geb ur
Franc e’s</w>
Den n</w>
і н</w>
б ол
suppor ting</w>
rich tigen</w>
pay ments</w>
par t,</w>
n ur,</w>
m t</w>
k en,</w>
h eri
gewinn en</w>
ff er
ck ing</w>
C I
ß en,</w>
voll er</w>
un bedingt</w>
tic ally</w>
them ati
stre am</w>
str ö
sig ned</w>
sec ular</w>
le b
intel ligence</w>
f ek
f ach</w>
employ e
econom ist</w>
biet en.</w>
be kommen</w>
ar me</w>
aff ect</w>
a im</w>
Son der
S ho
Or t</w>
Kon sum
K lim
Doll ar
zukünf tigen</w>
ver ges
umfassen den</w>
soll en</w>
schlä gen</w>
per form
num bers</w>
niedri g
mas siven</w>
main taining</w>
israeli sche</w>
fl uss
fear s</w>
exp lic
death s</w>
Ur sach
ver teilung</w>
un sten</w>
to x
suff ering</w>
st ac
si mul
ro und
rec ently,</w>
progra mm
gen utz
ff enen</w>
ei ght</w>
ci es.</w>
bru t
betrach ten</w>
be vorzu
be frei
Z wischen
tur ning</w>
sh ilfe</w>
o s
m ass
lich keit,</w>
lang sam</w>
lad es
kan did
eful ly</w>
e ast
derar tiger</w>
dem and.</w>
am es</w>
ab sor
Welt krieg
Ti be
Stärk e</w>
Pro teste</w>
E lek
Con gres
B ash
Ab bas</w>
ä ß</w>
ver sprech
twenti eth</w>
set ting</w>
scienti sts</w>
schließ en,</w>
re ale</w>
lok ale</w>
lieg en.</w>
inten ded</w>
glau bwür
emerg ed</w>
blam e</w>
aut onom
ausge drück
alli ance</w>
Zer stör
X i</w>
Ver halten
Res ol
Re gel</w>
König reich</w>
Erweiter ung</w>
Aus nahme</w>
ärm sten</w>
te d
t wi
stärk sten</w>
shar ehol
righ ts,</w>
neg ativen</w>
mittl erweile</w>
men gh
leader s,</w>
eng age</w>
else where</w>
Rechts staat
Kommun ismus</w>
л е
wor ry</w>
wen igen</w>
versu chen</w>
ter m,</w>
schütz en.</w>
p akist
geschei ter
gene tic</w>
en .“</w>
drit te</w>
di men
clas si
best and</w>
bei .</w>
Nach fol
Mul ti
Clim ate</w>
19 .</w>
" ,</w>
v ent
und en.</w>
techni cal</w>
sust ain</w>
spe ech</w>
skill s</w>
multi -
mul tin
know s</w>
itä t,</w>
el ess</w>
di sin
bestimm t</w>
besser en</w>
befin det</w>
as pec
adjust ment</w>
Su che</w>
N ow,</w>
Hö h
F ach
1 3</w>
wor den.</w>
verring ern.</w>
schwach en</w>
s ),</w>
reflec ted</w>
le d.</w>
extrem ely</w>
determin e</w>
deca de,</w>
Zu ge</w>
Vor gän
Man age
Gefahr ,</w>
G ericht
Demo kraten</w>
Bush s</w>
Bang lades
199 8</w>
änder n.</w>
th eit</w>
n am</w>
lös en.</w>
i a
gezw ungen</w>
gewähl t</w>
geh ens
erheb liche</w>
dav on,</w>
ben e
L is
L ang
Cha os</w>
Argum ent</w>
z ern
th ei
plac e.</w>
pen y
over come</w>
ob stac
k einer</w>
gre en
genom men,</w>
dan ach</w>
c row
b on
am in</w>
Zahl en</w>
Wis sen</w>
System e</w>
O lymp
Klu ft</w>
Ital y,</w>
Hum an</w>
Anpass ung</w>
о р
ал ы
übersch rei
ver mittel
tri es</w>
st am
qu o</w>
land s,</w>
krä ften</w>
had ap</w>
gewor den.</w>
ger .</w>
er st
dramati c</w>
argumentier en,</w>
Spe kul
Sch ä
Nation alismus</w>
H and
Greec e,</w>
Ein heit</w>
Aus einander
Arbei t
zer r
ter hadap</w>
mig ra
läs sig
letz ter</w>
less ons</w>
l anti
intel lig
forc ing</w>
er scheint</w>
equi valent</w>
epi dem
con s
assu mp
aggreg ate</w>
adop t</w>
a g</w>
Zei tal
M ass
Kl ein
Jord ani
G ericht</w>
Bli ck</w>
z z
wider spiegel
tra ining</w>
sub sequ
shar p
sec tors</w>
repres ent</w>
n ers</w>
müs ste</w>
grow n</w>
gr ü
estim ates</w>
ess ed</w>
erhö ht</w>
dr äng
den ke</w>
comp et
cent uri
Zei traum</w>
Sinn e</w>
M ari
L ist
Ein w
Bo tschaf
wettbewer bs
we den</w>
vor hand
v e-
un zureich
sp ort</w>
soll en,</w>
sol ve</w>
labor -
kl are</w>
g ame</w>
frei heit</w>
ent liche</w>
an gebo
Un der</w>
Nigeri a</w>
Gener ationen</w>
C D
versch mutz
ta ins</w>
rich tig</w>
physi cal</w>
or e</w>
meas ure</w>
kam en</w>
ing ”</w>
i j
heav ily</w>
gew ach
for es
exper ts</w>
Uni on’s</w>
OEC D</w>
Liby en</w>
Beobach ter</w>
BRI C
weit gehend</w>
schließ en.</w>
resol ution</w>
rati o</w>
pemer intah</w>
particip ation</w>
h ef
glau ben</w>
führ t.</w>
ell ,</w>
econom y’s</w>
billi ons</w>
Off en
Mos co
Mar ch</w>
Kor rup
K er
Go og
D re
w as,</w>
up ,</w>
un like</w>
tion ed</w>
sel ec
off enen</w>
ne ben</w>
is tic</w>
ho sti
histor y,</w>
hand s</w>
em en</w>
cel eb
aus schließlich</w>
ac compli
Ver fahren</w>
Turke y,</w>
Syri a,</w>
St ability</w>
Redu zierung</w>
Pro vin
Haushal t</w>
H ig
Greec e’s</w>
Erspar nisse</w>
B or
7 0%</w>
200 1,</w>
Überwach ung</w>
Ä hn
zunehmen den</w>
ver hindern</w>
s cor
ke eping</w>
futu re,</w>
fo ur
ell es</w>
depen dence</w>
den ce,</w>
c li
bank ers</w>
S ci
Rei cht
Po wer</w>
Parlam ents
Jun e</w>
Jahr en.</w>
Indi vidu
Des halb</w>
Chin a
Chanc ell
Anti -
treat y</w>
rel eas
mehr eren</w>
hal f-
gu n</w>
g te</w>
fe el
expen sive</w>
exp and</w>
eurozon e’s</w>
es se</w>
eh men</w>
ech ten</w>
de tail
cri mes</w>
bau en</w>
Sicherheits rat</w>
R at</w>
Politik ern</w>
Op posi
Ein klang</w>
ti ci
regi mes</w>
partn ers</w>
jähr liche</w>
führ t,</w>
form ulier
fol genden</w>
er ’s</w>
descri bed</w>
credi ble</w>
alism .</w>
Sch lag
Per son</w>
Konsequ enzen</w>
H andl
up .</w>
se ven</w>
problem s,</w>
pri mar
hin aus
genu ine</w>
f s</w>
anhalten de</w>
Viet nam</w>
P RI
Medikament e</w>
Industriel änder</w>
H u</w>
Gläub iger</w>
Frankreich ,</w>
4 5
- ,</w>
zahl ungen</w>
morali sche</w>
mon et
in sist
f le
domin ated</w>
capit al,</w>
canc er</w>
ang ri
T ex
Schwellen ländern</w>
King dom</w>
J e</w>
Industri e</w>
Frankreich s</w>
Bed enken</w>
4 ,
ul a</w>
suff er</w>
stärk ere</w>
si v</w>
reform .</w>
rat e.</w>
ment en</w>
ma ,</w>
lich en,</w>
ismus ,</w>
ic ,</w>
ho sp
fe wer</w>
farm ers</w>
dru gs</w>
den de</w>
deep er</w>
che ap
bur den
aus ch</w>
auf recht</w>
T uni
Noten bank</w>
Fern seh
Eng li
4 .
2 1.</w>
und en,</w>
tel l</w>
sor t</w>
sig ns</w>
sch rit
samm lung</w>
rei n</w>
new spap
midd le-
me et
mach te</w>
m ale</w>
li gen
ir re
establish ing</w>
divi ded</w>
dis h</w>
dam ali
concern ed</w>
Universi tät</w>
Projek t</w>
Partner schaft</w>
Kop f</w>
Cháve z</w>
ökonom ischen</w>
vor stell
st ürz
sp on
servic es,</w>
ro om</w>
recht fer
re bel
n one</w>
kapit al
ist s,</w>
fl äch
fir m</w>
fal t</w>
ermöglich en,</w>
di l
capit alism</w>
be for
b ase</w>
The orie</w>
S ud
Kontin ent</w>
Angri ffe</w>
An spruch</w>
tion en.</w>
syri schen</w>
ris kan
revenu es</w>
or ing</w>
issu ed</w>
gre en</w>
fal sch</w>
credi bility</w>
c .</w>
Ren minbi</w>
Kom p
Gerech tigkeit</w>
Fran zo
the ore
sup pl
sph äre</w>
s li
le ben.</w>
ide ological</w>
ho ffen,</w>
bedeut ende</w>
b it</w>
außer gewöhn
aliz ing</w>
L eu
Iraq .</w>
H aus
ähn lichen</w>
wi l
vir tu
unmittel bar</w>
sol ange</w>
se ti
ro ad</w>
pl u
peop le’s</w>
ko v
in e.</w>
health- care</w>
competitiv eness</w>
bor ders</w>
accep ted</w>
ab gel
Tra g
T it
Leist ung</w>
Je wish</w>
Innov ationen</w>
Europe 's</w>
Är z
win d</w>
wei sen,</w>
ver lag
uncertain ty</w>
tra de,</w>
subsi di
sowje tischen</w>
sch u
region ,</w>
liber alen</w>
konfron tiert</w>
knü pf
ge grün
en g</w>
ab in
P a
Gü ter</w>
G est
F ünf
Berei tschaft</w>
ä he</w>
y )</w>
un vermei
u kra
tool s</w>
system s,</w>
steig en.</w>
st e.</w>
resol ve</w>
pres ence</w>
li eb
kl ag
hän om
forder t</w>
exchan ge-
ed ge</w>
democra cies</w>
cap able</w>
bus ines
b anyak</w>
ar ch</w>
T ony</w>
Soll te</w>
O r</w>
My an
Mark tes</w>
F isch
Bel gi
zentr alen</w>
vo ic
ut zutage</w>
unser em</w>
steu er</w>
o t</w>
nation alist</w>
jewei ls</w>
impor ts</w>
gain ed</w>
ein kommen</w>
dou ble</w>
conflic ts</w>
accep t
ac tion.</w>
ab ly,</w>
Peri ph
N ever
Konzep t</w>
Inform ations
Chin a's</w>
Aus bil
voll en</w>
verschul dung</w>
ver d
schließ en</w>
schie den</w>
ro n</w>
quali fizier
ologi schen</w>
m ere</w>
läs st.</w>
humanit arian</w>
hau shal
enga gi
contribut ed</w>
Wes entlichen</w>
Viel mehr</w>
Schl uss
S ig
Grow th</w>
Fähig keit,</w>
For tun
Asi ens</w>
200 7,</w>
ü ll
ö k
y at
tradition elle</w>
thodo x
th eless,</w>
reform ,</w>
pp ing</w>
on e’s</w>
im migration</w>
gei sti
fin det</w>
en ).</w>
control s</w>
at es,</w>
agen cies</w>
activi ties</w>
Un sere</w>
On ce</w>
Euro -
Diplomati e</w>
D ut
2 5%</w>
а н</w>
wir ,</w>
verur teil
verring ern</w>
t le</w>
senk ungen</w>
now ad
histor ic</w>
entwickel te</w>
col oni
be ar</w>
ab sich
Wechselkur s</w>
Religi on</w>
Qu alität</w>
A pp
st ol
op tion</w>
min ority</w>
lig keit</w>
langu age</w>
implic ations</w>
hol ds</w>
histor ische</w>
gesag t,</w>
cent rali
b all</w>
adv ance</w>
W andel
Grün dung</w>
3 5</w>
1 6</w>
ы ң</w>
ж а
verantwor t
us ah
strength ening</w>
setz te</w>
rel uc
proble m,</w>
politi k.</w>
p ru
manip ul
extre m</w>
deb t-
auf stre
a wa
W erk
R est
N ation</w>
Milo se
Koso vo
Kon serv
ten sions</w>
resist ance</w>
religiö se</w>
r ar
put ting</w>
ministeri um</w>
kn app
initi ative</w>
im per
gef angen</w>
ge macht.</w>
f ill</w>
entwickl ung</w>
enntn is</w>
el t</w>
dür fen</w>
dru g
declin ing</w>
affec ted</w>
Um welt</w>
Si ed
R unde</w>
Qu elle</w>
Präsident en
Kri ege</w>
Itali an</w>
Griechen lands</w>
Asi a.</w>
A ble
zwangs läufig</w>
z in</w>
year ’s</w>
victim s</w>
ver bo
untern om
tel ah</w>
sin d
refuge e</w>
potenzi ell</w>
ph en
m ärk
kor rup
haf ten</w>
eh in</w>
da y,</w>
con dem
car ried</w>
b and
an ish</w>
Unter drück
Re pres
Pol and</w>
M I
Liber alisierung</w>
Frem d
Ex peri
Ent sch
Energi es
Doll ar,</w>
Auf sichts
2 5
zi em
w ro
te “</w>
st öß
so fern</w>
li e</w>
i ere</w>
hei ten,</w>
go als</w>
gewis se</w>
fis kali
di k
beschle unig
all mäh
Tür kei
TO N</w>
Never theless,</w>
N u
Allgem einen</w>
zweifel los</w>
v ed.</w>
twent y-
p ace</w>
nut ri
n ess.</w>
j ü
gering er</w>
ern ähr
er wä
er em</w>
entrepren e
M ad
Inter ventionen</w>
I hr</w>
F ed
Ern ähr
En erg
Ch ur
C openhagen</w>
Bush ’s</w>
199 1</w>
ze i</w>
um b
trans fer</w>
ter -
spe ak</w>
sau ber
re commen
pl ant</w>
kurzfristi g</w>
komm t.</w>
is ed</w>
histor y.</w>
ge halten</w>
ernsthaf te</w>
er iger</w>
effek tiv</w>
credi tors</w>
con st
comp la
bis lang</w>
arbei ten.</w>
al a</w>
Zu gleich</w>
Un til</w>
Ukrain e’s</w>
Staats schulden</w>
Pro -
Janu ary</w>
Initi ativen</w>
Finanz kri
Dev isen
Beschränk ungen</w>
B is
20 30</w>
wh ich,</w>
th is.</w>
ri eben</w>
push ing</w>
mo ved</w>
lo om
exchange- rate</w>
europä ischer</w>
es .”</w>
do k
cri p
comm unities</w>
S S
Nic olas</w>
Leb en
Defen se</w>
Aus bruch</w>
Asi a’s</w>
Arbeits markt</w>
An wendung</w>
seri ously</w>
sector ,</w>
schlech ter</w>
reti re
reluc t
ou ver
or s.</w>
ohn ehin</w>
offen bar</w>
lich sten</w>
kurzfristi gen</w>
ko ,</w>
in a</w>
ent h</w>
ekonom i</w>
dis cover
ch -
beli eb
auß en</w>
at ri
ap s</w>
Wirtschafts politik</w>
Städ ten</w>
Sor ge</w>
Mäd chen</w>
Mig ration</w>
M er
Lo gi
H ol
Großbritanni ens</w>
Extre m
Besu ch</w>
Berluscon i</w>
Au gen
Ar men
üh m
us tic
ur es.</w>
t ely</w>
schwer en</w>
ra c
r .</w>
proc ess,</w>
pri vi
pre me</w>
politic s,</w>
pa st.</w>
pa st,</w>
mus ste</w>
men ing
h andel</w>
fi el</w>
dist or
demonstrat ed</w>
def end</w>
cross -
aus gesetzt</w>
an gen
Organiz ation</w>
Kri tiker</w>
Kreditver gabe</w>
Heal th</w>
Eli ten</w>
Dialo g</w>
Argum ente</w>
Arbeitsplätz en</w>
ß en.</w>
y ar
th s</w>
suppor t.</w>
stu dies</w>
sti m
sicher zustellen,</w>
schwierig ,</w>
s w
push ed</w>
prof its</w>
lä uf
l ac
k atastrop
grupp e</w>
gef örder
ge d
f est</w>
erklär t</w>
eli te</w>
elec tion,</w>
curren cies</w>
bilit y.</w>
ah u</w>
Terror an
Sp itze</w>
Le a
Chancell or</w>
( der</w>
zi gen</w>
ver doppel
tür kischen</w>
st rit
sa cht</w>
produc tiv
ko ordin
i ding</w>
extre mis
en su
do .</w>
de x</w>
ch ief</w>
bilit ät</w>
ali ties</w>
S am
Projek te</w>
Mubar ak
M ag
I l
Gefahr en</w>
Fäl le</w>
Ex ist
E ar
Di ffer
Di en
Boli vi
Ber uf
” ,</w>
и я
verwen det</w>
tre at</w>
ser ved</w>
s ,”</w>
rema ining</w>
r ying</w>
proble me</w>
infl ation,</w>
hin gegen</w>
fuel ed</w>
di per
da ß</w>
b ac
anhalten den</w>
a war
Will en</w>
Trump s</w>
P ek
Nach hal
In fek
Com pu
Char ak
4 0
„ die</w>
zer o</w>
wiederhol t</w>
wach sen</w>
verlang sam
um fang
system s.</w>
stän digen</w>
seri es</w>
rhetor ic</w>
rat e,</w>
pos s
pen g
nah e,</w>
mon th,</w>
mi tig
leg ung</w>
incen tive</w>
fristi g</w>
fac ili
emerg ing-
br ü
bes i
arbei tet</w>
allow s</w>
Struktur reformen</w>
Si cht
Kop f-
Ein schränk
Doll ar.</w>
Britain ’s</w>
verur sacht</w>
unser es</w>
sovereign ty</w>
societ y,</w>
schw ache</w>
s emi
reven ue</w>
publi shed</w>
per pet
op posed</w>
of -
nah me,</w>
legisl ation</w>
komp lizier
jo int</w>
famili es</w>
do es
con ference</w>
be kommen,</w>
at z</w>
and au
T ak
Paci fic</w>
P ak
Mach th
L ek
Israel .</w>
H under
For men</w>
F D
Col ombi
Bo den</w>
Aust rit
zugr unde</w>
ta il</w>
sus p
s ac
repe at
neh mer</w>
lin ked</w>
hel fen.</w>
es ischen</w>
ent ’s</w>
ee ded</w>
be zeichnet</w>
bank s.</w>
au ff
absolu te</w>
Zent rum</w>
W H
Verfü g
Stand ards</w>
S ein</w>
Rhetori k</w>
N ob
Land wirtschaft</w>
H ai
Ber lin</w>
Aus sicht</w>
wi tn
us s,</w>
under stood</w>
unabhängi ge</w>
the or
te -
remark able</w>
produc t</w>
produc ing</w>
presiden cy</w>
opport un
mean ing
law .</w>
konn te.</w>
ju an</w>
gest ütz
ge kehr
enor m</w>
dow n.</w>
comp lex
be zeich
al arm
ac tivity</w>
Zei chen</w>
P hänom
Energi en</w>
East .</w>
E pi
Brex it
zu letz
t- wing</w>
sä kul
simul tane
se bagai</w>
pub lik
pati ents</w>
ologi sche</w>
mo tivi
m ou
lieg t,</w>
jen igen</w>
j ord
ich te</w>
gebra cht.</w>
fac to</w>
eh en,</w>
diseas es</w>
de preci
cas h</w>
aus drück
a ys</w>
Unter dessen</w>
Schul en</w>
P i
wirk sam</w>
veh ic
us eful</w>
st ers</w>
si gh
schi i
schi cht</w>
sag te</w>
other s,</w>
nor thern</w>
ir anische</w>
institution elle</w>
geh ol
ge ts</w>
fas hi
exac erb
electric ity</w>
da y
constitu tion</w>
an ya</w>
Wür de</w>
Ver besser
Sy mp
Sun ni</w>
Solidar ität</w>
Rett ungs
Reser ven</w>
H aus</w>
Gef ol
wirk sam
week s</w>
voll kommen</w>
suff ered</w>
st lichen</w>
servic es.</w>
led ged</w>
l enk
ig keit</w>
geb ung</w>
ein nahmen</w>
dig it
bub ble</w>
beträ gt</w>
ac y.</w>
P läne</w>
Mal aria</w>
Kur z
B ör
tt ä
trä gt</w>
streng th</w>
schaf ten,</w>
punk te</w>
phen omen
nee ded.</w>
griech ische</w>
gre w</w>
exp anding</w>
ein fluss
dro p</w>
achiev ing</w>
Interes sen
Ins besondere</w>
Gebi et</w>
Cor por
über greif
Än g
zi vil
world wi
will .</w>
well ,</w>
vor berei
ver sion</w>
ten “</w>
te am</w>
son st</w>
pa ya</w>
o se
notwen digen</w>
n ess,</w>
le d,</w>
jähri ge</w>
jum lah</w>
hig her
geo graph
gem äß</w>
countr y's</w>
bet ru
beru ht</w>
ak tiv</w>
again .</w>
( as</w>
    </w>
verstärk t</w>
suppor ters</w>
stri c
st sein</w>
spiel en.</w>
promis ing</w>
poin t,</w>
order .</w>
n utzen</w>
i or
ho st</w>
gain ing</w>
an stre
addres sing</w>
Nord kore
Bru tto
201 6</w>
. &nbsp;</w>
wur f</w>
t ag
stoff en</w>
sh ad
sel ten</w>
ro t
reason able</w>
län dlichen</w>
her stellung</w>
gesag t</w>
er es
entsprech end</w>
durchschnit tlich</w>
defe at</w>
blo od
batt le</w>
as si
Wei ter
Res pek
Lehr en</w>
Georgi en</w>
Fund ament
D ass</w>
Aus maß
wor ds</w>
ung sin
some one</w>
sion s
sat u</w>
organiz ation</w>
neighbor s</w>
movem ents</w>
k il
ine te
identi ty</w>
höch sten</w>
gi ves</w>
ge fü
direk te</w>
be u
Konf ron
Kol legen</w>
Handel n</w>
For derung</w>
Fak tor</w>
Erdoğ an</w>
Bei tritt</w>
B O
Artik el</w>
Analy se</w>
9 0</w>
wen den</w>
wei ght</w>
tel evi
show ed</w>
shap e</w>
sek tors</w>
pri ority</w>
oper ations</w>
m icro
im balances</w>
har mon
ge d.</w>
essen tially</w>
er ende</w>
dr ing
d ings</w>
cir c
Th re
S co
Kur z</w>
K un
His bollah</w>
D adurch</w>
Bestimm ungen</w>
“ The</w>
tion :</w>
th -
schri ften</w>
ro ut
rec or
occur red</w>
leist ungen</w>
ing ga</w>
hin zu
g ingen</w>
erfolg reiche</w>
entschei den,</w>
empha si
besteh en,</w>
be zü
be fürwor
a is
St al
Mensch heit</w>
L on
A ch
8 .</w>
sur ely</w>
sozi aler</w>
sel n</w>
organis ation</w>
ni schen</w>
lan gem</w>
kurzfristi ge</w>
har d
ff s</w>
ern st</w>
erhöh en,</w>
entwickel n.</w>
en forc
ch er
bet rei
b lie
at mo
analy sis</w>
Ter ri
Republic ans</w>
Priv ati
Op tim
Mit arbeiter</w>
M ur
Iran .</w>
Frei handels
Er wer
Bl ut
2008 .</w>
übri gen</w>
Än derung</w>
w asser
ver handl
uni que</w>
tt om
sup pos
st rate</w>
schwi eriger</w>
s we
prac tical</w>
ne x
mö chte</w>
lar ge-
gewährleist en,</w>
gang s</w>
ex posed</w>
el se</w>
c ep
Struk tur</w>
S ä
PRI N
Ne ther
Nach fra
Ju den</w>
Jap an.</w>
Gebie ten</w>
Gar anti
G ast
E m
world 's</w>
verbesser n</w>
urg ent</w>
t dem</w>
sor gen.</w>
sier ungs
sharp ly</w>
setz t,</w>
sch lagen</w>
risk .</w>
recogni tion</w>
poten ti
nah e</w>
mechanis ms</w>
mechan ism</w>
lo hn
li gung</w>
la y</w>
infl ation.</w>
in ation</w>
fall ,</w>
e an</w>
besch rei
bes etz
be grü
ad a,</w>
ab hän
T ab
Spra che</w>
O P
M y</w>
M ol
Kom ment
Er krank
Defl ation</w>
Ar mut
Angebo t</w>
201 1,</w>
werden ?</w>
w .</w>
verfolg t</w>
ver teil
stell er</w>
sector .</w>
repor ted</w>
regar ded</w>
primar ily</w>
nachhal tigen</w>
kapit al</w>
ger -
for war
embra ce</w>
ein hei
com mon
ck ed</w>
b zw
abilit y.</w>
Vereinbar ung</w>
Ungleichgewich te</w>
Th ak
R el
Pra xis</w>
PRIN CE
N ähe</w>
Metho den</w>
K rei
IMF ’s</w>
Hau se</w>
Akti en</w>
A ff
. ,</w>
- led</w>
ö der
wahr e</w>
tra in
st ur
regar dless</w>
o s,</w>
materi al</w>
l ,</w>
indi sche</w>
im pe
her auszu
gen ü
geb ie
ge änder
g uter</w>
call ing</w>
bzw .</w>
ber apa</w>
attemp ts</w>
anc ing</w>
Zwec k</w>
T ä
Stro m
Proble ms</w>
Nieder gang</w>
List e</w>
Famili en
Autor ität</w>
s ah
reib ung</w>
p r
n en.</w>
jem and</w>
in d
gef unden</w>
fes t,</w>
end or
en em
e e</w>
consu mer
concep t</w>
bür ger
bil d</w>
at en.</w>
appear ed</w>
Wes t.</w>
Ver wendung</w>
S ter
Franzo sen</w>
Au ff
1 -
su m</w>
priv ate-
pass ed</w>
mo dest</w>
mi x
mean ing</w>
ges unk
ex it</w>
dow n,</w>
ak tionen</w>
Wieder herstellung</w>
Transpar enz</w>
Ta gen</w>
Schwäch e</w>
Ko operation</w>
H olo
G ouver
Eli te</w>
Bedroh ungen</w>
20 20</w>
19 2
zei ten</w>
z e,</w>
wer de</w>
vor sich
ver hältn
righ ts.</w>
res c
regi me
prev enting</w>
n inete
lin ks</w>
kein erlei</w>
isch -
förder n,</w>
f ro
erfolg reich
ek u
clo sely</w>
beein träch
assu me</w>
as k
and ’s</w>
alisier ten</w>
Un gar
Streit kräfte</w>
K e
HI V</w>
Febru ar</w>
8 -
änder n,</w>
yiel d</w>
neh men
lieg t.</w>
keb ij
j uri
hop es</w>
geschi eh
energ y,</w>
educ ational</w>
eas ing</w>
dien en.</w>
di e,</w>
besch ei
barri ers</w>
aw are</w>
aus gebil
Spain ,</w>
Reak tionen</w>
Egyp t’s</w>
D ann</w>
Arabi a</w>
weiß ,</w>
us ses</w>
t an</w>
sen d</w>
s ang
p ic
lever age</w>
kultur ellen</w>
il legal</w>
heav y</w>
han ya</w>
gewinn en.</w>
erg reif
effek tive</w>
ear n
dynam ic</w>
discus sion</w>
cost s.</w>
compani ed</w>
ber n</w>
ben utz
bal anced</w>
al ”</w>
ac ts</w>
Wei se,</w>
Sch war
S pen
Russi a's</w>
Nob el
Net to
Mubar ak</w>
L I
Kohl en
Inste ad</w>
Bemüh ungen,</w>
Argentin a</w>
“ -
währ ung</w>
wei se,</w>
wa it</w>
sch e,</w>
ro bust</w>
rech ts
re alize</w>
or ity,</w>
ish ing</w>
i .</w>
har te</w>
fossi l</w>
est ate</w>
ermöglich t</w>
cle an</w>
Wes t,</w>
Tech ni
Pro- Kopf-
O b</w>
Leh man</w>
Jul y</w>
Frü hl
Defiz it</w>
Christi an</w>
Chri st
Bed ar
B ul
tem perat
statt dessen</w>
sol ven
slow down</w>
re place</w>
pro found</w>
mod ell</w>
lieg en,</w>
le u
lag en,</w>
k in</w>
high ligh
fin dung</w>
erwar tet</w>
emer gence</w>
eg en,</w>
conflic t.</w>
ber .</w>
ac companied</w>
E bol
D -
Ch ef</w>
Ab wertung</w>
A -
z ar
under p
u re.</w>
tre ated</w>
ten e</w>
te g
ro ll
reform s,</w>
pover ty,</w>
persön lichen</w>
konzentrier en,</w>
j ustic
immedi ately</w>
h istic
government al</w>
gem äßig
fig ure</w>
ff en.</w>
ex ist</w>
erkenn en.</w>
entscheiden den</w>
de liber
bra chte</w>
aus gerich
Venezuel a</w>
Schwer punkt</w>
Saudi-Arabi en</w>
O ut
и н
v on
unter such
tre ffen,</w>
suppos edly</w>
sa id,</w>
s l
reser ve</w>
re lief</w>
mem b
imp ly</w>
ic .</w>
höch st</w>
heb ung</w>
go t</w>
fün f
emerging- market</w>
cour t</w>
beein druck
be kommen.</w>
ak in</w>
ad d</w>
Som ali
Qaed a</w>
NG O
Liquidi tät</w>
Li ef
Bro ther
Bet ri
1 5%</w>
Ö ff
zi ge</w>
zeu ge</w>
steig t</w>
spend ing,</w>
si a,</w>
shar ing</w>
schlim mer</w>
sa ys</w>
regul ators</w>
mm etri
mark ed</w>
lie genden</w>
le f
lat ein
kost spie
intel lektu
her beizu
ed :</w>
di enen</w>
deter ior
bu ying</w>
bru tal</w>
bo d
bil den</w>
Mc C
Je an-
Hinter grund</w>
HIV /
Gul f</w>
Finanzier ungs
Egyp tian</w>
Dut ch</w>
Bil d</w>
Ab dul
A ri
verb undenen</w>
us ual</w>
uni on
stre ck
sier t.</w>
sch öpf
ra pi
posi tions</w>
organiz ed</w>
or ed</w>
morali schen</w>
mit ted</w>
lo g
lemm a</w>
k et
ine j
health y</w>
gren ze</w>
fiel d</w>
ernsthaf t</w>
dig keit,</w>
ar ity</w>
Welth andel
Ret tung</w>
Put in,</w>
Islam ischen</w>
Holo cau
Geh ir
Ar z
199 7</w>
zusätz lichen</w>
wei ß</w>
ver lassen</w>
trit ts
tri eb
sop histic
potenzi ellen</w>
pat tern</w>
objec tive</w>
norm alen</w>
mortg age</w>
liber alization</w>
laun ch</w>
ing ly,</w>
heal th,</w>
gri ff</w>
gesti egen</w>
geb en
fra gen,</w>
embra c
de ad
coll abor
ch :</w>
ass en,</w>
ang ha
a gen</w>
Zu stand</w>
W ich
W al
Treib haus
Stud enten</w>
S lo
Hei mat
F eu
Betei ligung</w>
än d
ä cht
zähl en</w>
vi g
um gesetzt</w>
tra gi
spra ch</w>
ser war
offen kun
mus sten</w>
i op
gän gi
gef as
for schung</w>
eben e</w>
besteh ende</w>
ber i
arch it
Zus timmung</w>
T enden
Selbst verständlich</w>
Perspek tive</w>
L eg
Außen minister</w>
200 0,</w>
ziem lich</w>
righ t.</w>
proc ess
n a
m ü
inv asion</w>
industri e</w>
ger inge</w>
geführ ten</w>
fel t</w>
er re
emp f
develop ments</w>
cre ates</w>
chan n
bankrup t
Nach richt</w>
N on
Ide ologie</w>
Diskus sionen</w>
Defiz it
9 0%</w>
1 3
қ а
wei thin</w>
ul d
tur n,</w>
su chen</w>
st res
sprü che</w>
setz t.</w>
sc al
s cope</w>
re placed</w>
la ge
in stability</w>
ehr gei
ech ter</w>
be k
Wähl er
Tren ds</w>
Tem perat
Re präsent
J acqu
Demo crats</w>
6 ,
200 5,</w>
zug unsten</w>
ung leich
u re,</w>
tra d
themsel ves.</w>
ter ien</w>
strong ly</w>
schn ei
retur ns</w>
repeat edly</w>
pro vin
occ ur</w>
nomin al</w>
man i
ko s</w>
ini ,</w>
geb i
fi f
er scheinen</w>
em bar
elsewher e.</w>
einf ache</w>
comple tely</w>
comp u
besteh t,</w>
b les</w>
amp i
ac ting</w>
ac qui
S ur
M et
Lon don
K ham
Is ol
I R
Befürwor ter</w>
Au th
Am bi
и к
zurück ,</w>
zi ell</w>
turi erung</w>
tur mo
system ic</w>
steig en,</w>
son ,</w>
ri chten,</w>
repor ts</w>
rech ten</w>
pre mi
ob s
ni veau</w>
m ed
look ed</w>
l es,</w>
l an</w>
kon solidi
kan .</w>
jo ined</w>
ira kischen</w>
il ’s</w>
handel n</w>
groß es</w>
geh ende</w>
flexi ble</w>
ent schieden</w>
dominan t</w>
ch ers</w>
ar res
ar is
ak tiv
addi tion</w>
Wechselkur se</w>
Wechselkur s
Ursach en</w>
Stim me</w>
PRINCE TON</w>
Nor den</w>
Nieder lan
H ier</w>
2 7</w>
är er</w>
wär en.</w>
wei gh
wa ve</w>
sch utz</w>
resourc es,</w>
pro pag
jüng st</w>
identi fy</w>
herr schaft</w>
gesellschaft lichen</w>
gen des</w>
ge zogen</w>
ge kommen</w>
erwar ten</w>
economic ally</w>
dialo gue</w>
de ter</w>
cri tici
convinc ed</w>
compani es,</w>
acc umul
Rei chen</w>
Nach rich
Mu ch</w>
Gläub ig
197 0er</w>
w are</w>
verli eren</w>
u ra
threat ened</w>
sofor t</w>
other wise</w>
mit ten</w>
min d</w>
k lin
inevit ably</w>
implement ed</w>
gewi ss
ger s</w>
genu g,</w>
fragi le</w>
entscheiden d</w>
enk t</w>
disp lac
dep loy
be unru
an e</w>
Musharra f</w>
K auf
Job s</w>
Invest ment</w>
Fortun ately,</w>
Committe e</w>
C ur
Be wäl
ы н</w>
üs sen</w>
übersch uss</w>
trei ben.</w>
tier enden</w>
sus pec
sk i</w>
reform s.</w>
re put
or ang</w>
ne .</w>
mut ual</w>
ma y
l er,</w>
finanzi erung</w>
er öff
ent al</w>
eg u
confron t</w>
con tex
compe te</w>
ber ühm
be gun</w>
ac tual</w>
ac t.</w>
a ya</w>
Wes teurop
Vermö gen</w>
Stur z</w>
Schätz ungen</w>
Schul e</w>
Rak et
Ni em
Mittl eren</w>
Keyn esi
K örper
Inv asion</w>
G aul
Au stri
Americ a.</w>
ғ а</w>
sh of</w>
resour ce</w>
plötz lich</w>
out com
ni gh
natür lichen</w>
man aging</w>
läs si
k ap
integ rated</w>
imag ine</w>
hät ten.</w>
fo ot
fi cial</w>
er staun
dig ital</w>
da ,</w>
crimin al</w>
contra dic
c lass
at em
an f
accoun ting</w>
Zivil gesellschaft</w>
Ver s
Shi a</w>
P )</w>
Leb ens</w>
Kingdom ,</w>
Journ alisten</w>
Jacqu es</w>
Glau ben</w>
Be wus
BIP- Wachstum</w>
Al geri
Able hnung</w>
z er</w>
ver größ
tor .</w>
threat ening</w>
technolog y,</w>
schütz en</w>
schlimm sten</w>
sch ru
recht zu
müs sten</w>
jed o
inclu ded</w>
gen o
forec ast
erwar ten,</w>
er a
ent deck
dem and,</w>
alitä ten</w>
ac ted</w>
Vor schläge</w>
Th en</w>
St ör
St atisti
Rom ani
Re public</w>
Mig ranten</w>
Leban on</w>
Berei t
An leih
vor herrsch
t ab
risk -
restric tions</w>
pra k
on line</w>
obser vers</w>
ni sche</w>
large- scale</w>
krieg s
j ahr</w>
inf low
im migrants</w>
him .</w>
ess or</w>
de aling</w>
at as</w>
ant s,</w>
ah n
ac y,</w>
W ur
Plan eten</w>
M el
Gl ück</w>
Bes org
Angelegen heiten</w>
wur zel
ver trag</w>
ter m.</w>
tech no
sp ann
popul ations</w>
opposi te</w>
institution ellen</w>
inde ed</w>
hunder t</w>
h i</w>
ge macht,</w>
fin ding</w>
erklär t,</w>
enh ance</w>
deb at
car e,</w>
brei te</w>
b ak
as pi
ail s</w>
administ ration
Wirtschafts krise</w>
Vor gehens
Vier tel</w>
US- Regierung</w>
Sek toren</w>
Re ferendum</w>
Mat eri
Großbritanni en,</w>
E -
Bre tt
Bestand teil</w>
B en</w>
zurück kehr
zahl reiche</w>
täu sch
tto m</w>
t ough</w>
susp ici
su dah</w>
protec ting</w>
par tner</w>
level ,</w>
k ö
h ut
frü here</w>
folg t</w>
emp o</w>
einfach en</w>
denk en.</w>
commit ments</w>
cht fer
blei bt,</w>
betei lig
an s’</w>
ali en</w>
Z wei</w>
S hin
S T
S D
Rech en
Proble m
M ani
Kra ft
Ch ile</w>
Bewäl tigung</w>
zi cht
tivi sten</w>
ten ?</w>
t ).</w>
stärk en.</w>
sprech en,</w>
res pek
propos als</w>
niedri ge</w>
ne o-
initi atives</w>
ig sten</w>
head s</w>
geb li
eng aged</w>
em in
demokrati scher</w>
consist ent</w>
con vic
ar m</w>
adv ant
Wirtschaf t,</w>
Maß nahmen,</w>
Land es,</w>
K G
F ru
Char les</w>
6 .
wi tz
w andel
vo tes</w>
ver fahren</w>
unwahrschein lich,</w>
uni on,</w>
teil s</w>
res ili
re d
nuklear en</w>
li tät</w>
ing u
in ed
geb ro
di enstleist
critic ism</w>
bor row</w>
bilit y,</w>
ben de</w>
b all
Verhandl ungs
Ver teilung</w>
Ur sache</w>
Unru hen</w>
T ol
Ma o</w>
Europ a.</w>
Bedeut ung,</w>
B on
B a
с е
äu fe</w>
z ation,</w>
w ,</w>
tic le</w>
sen se,</w>
schein bar</w>
j eg
im migran
fu els</w>
exac tly</w>
es ische</w>
encoura ging</w>
durch zu
cyc le</w>
ark an</w>
anti cip
Zerstör ung</w>
Ukra ini
Steuerzahl er</w>
St ad
Reag an</w>
Re k
Oc tober</w>
N A</w>
M i
Gesetz es
Egyp t,</w>
E ver
C an</w>
Berei che</w>
1 50</w>
über nom
Über leben</w>
w u
ut y</w>
treff en.</w>
sü d
sch äd
res ig
pover ty.</w>
pl ying</w>
m er,</w>
läu ft</w>
kill ing</w>
in ischen</w>
import antly,</w>
ho ben</w>
expres sed</w>
derzei tigen</w>
bli ck
bl ing</w>
Un like</w>
Thir d,</w>
Res ear
R on
R ein
Prior itäten</w>
P rü
Gen au</w>
E M
D u
An k
4 00</w>
sei te</w>
sa ying</w>
rul ed</w>
risi ko</w>
ri cht
recession .</w>
propor tion
on ing</w>
nar ra
n eig
men tion</w>
ini tial</w>
infrastruc ture,</w>
ha di
h le</w>
gewähl ten</w>
gew and
f ond
eri schen</w>
dy s
dar um,</w>
conduc ted</w>
concern ing</w>
ap ar
US S
Ph ilosop
Ko ali
K y
Hoffn ung,</w>
Gesch win
) ;</w>
zeu gung</w>
wei sen.</w>
unemploy ment,</w>
tiv ely</w>
sta y</w>
spiel t</w>
restruc turing</w>
practi ce</w>
perf ec
palästinen sische</w>
ori en</w>
mit glie
los er</w>
leg acy</w>
konf lik
grund sätz
gel ang</w>
forc e.</w>
ex tra</w>
ei ll
corrup t</w>
c lin
bo und
at tri
appar ent</w>
Zeital ter</w>
Tradi tion</w>
Sin n</w>
Milli on</w>
M il
M icro
Jer us
J ed
Est abli
Erfol ge</w>
Coun tries</w>
Armut s
Über sch
wor den,</w>
wel chen</w>
wei ten</w>
ver tief
schle chten</w>
sch were</w>
put s</w>
public ly</w>
profession al</w>
ose vel
mat h</w>
lin k</w>
jud g
gewor den,</w>
eth eless,</w>
enth usi
energ i</w>
en emi
educ ated</w>
dür ften</w>
de urop
d amp
con text</w>
con sci
competitiv en
citiz ens.</w>
and in
able hn
Ti ef
Ro osevel
Portug al</w>
Poli zei</w>
Logi k</w>
Handel s</w>
Finanz sektor</w>
Fed ’s</w>
An statt</w>
wech sel</w>
unver zicht
untergra ben</w>
to w
thre aten</w>
sto ß</w>
spä ten</w>
sich .</w>
sei tens</w>
ri ert</w>
p il
o il
neg lec
li ert</w>
level .</w>
lauf en</w>
kauf en</w>
issu es,</w>
h ing</w>
erheb lichen</w>
ent en,</w>
e te</w>
disa ster</w>
de valu
cri me</w>
bo ttom</w>
best än
app lic
Verantwor t
R ou
Gaz pro
G ang</w>
E lement
C ,</w>
B innen
Aus lands
" .</w>
über wäl
ög lich</w>
um bu
si l</w>
ro ad
ri chten.</w>
p ass</w>
ori ented</w>
kl einer</w>
gesch ä
financ ed</w>
ern den</w>
en “.</w>
comm uni
ar eas
Sü den</w>
Struktur en</w>
S kep
Net any
For um</w>
Er st
Bes on
Be für
At mo
201 2,</w>
- year</w>
Ä u
vi able</w>
tr ü
th ing,</w>
potenzi elle</w>
plu rali
läs st,</w>
l es.</w>
kultur elle</w>
heu tige</w>
her bei
he gemon
he aded</w>
handel n,</w>
gradu ally</w>
gebra cht,</w>
f rau
estim ate</w>
deca de.</w>
an hand</w>
an ci
W TO</w>
Su preme</w>
Obam a,</w>
Mu ster</w>
Mittel n</w>
Jahrzehn ts</w>
H om
Entscheid ung,</w>
Bereit stellung</w>
- rate</w>
zusätz lich</w>
zuletz t</w>
vor anzu
vers pro
unabhängi gen</w>
stimul ate</w>
sist em</w>
sc and
s ligh
resourc es.</w>
private- sector</w>
min der
militäri scher</w>
ha sil
gel ern
gan is
fron t</w>
f res
f ließ
ent schied
conclu ded</w>
com ment
c oura
be herrsch
Rich ard</w>
Lu x
K am
Energi ever
Aut onom
Auf nahme</w>
7 5</w>
weak er</w>
veränder t</w>
ver folgen</w>
unter drück
tra ff
ti s
symbo li
st off</w>
spend ing.</w>
proc e
n ya,</w>
jedo ch,</w>
gewal ttä
frü h
fix ed</w>
f ts
en “,</w>
ell ed</w>
el .</w>
does n’t</w>
counter -
con tain</w>
claim ed</w>
be glei
al one.</w>
ag o
Staats verschuldung</w>
Si eg
Pakist an’s</w>
Osteurop a</w>
Energ y</w>
Al i</w>
ter s
st adt</w>
so ft
shr in
saf egu
resc ue</w>
propor tion</w>
ou b
new ly</w>
hät te,</w>
get ö
gen ?</w>
g ing,</w>
excep t</w>
enth al
end gül
doc tr
di di
Z ur
X ia
Verpflich tung</w>
Trag ö
Stag nation</w>
Mach t,</w>
I A
Dienstleist ungs
Den ken</w>
Chira c</w>
C aliforni
1 9</w>
trans fer
to o.</w>
sett lement</w>
regi me.</w>
re d.</w>
pro hi
minist erin</w>
mem ili
leist en,</w>
ignor e</w>
h em
gleich ermaßen</w>
gesellschaft liche</w>
ge geben,</w>
er möglichen</w>
en a</w>
di enst
de a
com promise</w>
be halten</w>
app ly</w>
agenda .</w>
ad ’s</w>
accep table</w>
T y
Szenari o</w>
Re b
Ministerpräsid enten</w>
Instru mente</w>
Brasili en,</w>
Bank en,</w>
·     
z iger</w>
versch lech
st un
st ran
ref used</w>
pursu ing</w>
progno sti
pre viously</w>
pl us</w>
mehr ,</w>
le :</w>
la sting</w>
gere cht</w>
funktionier en</w>
ever .</w>
er up
diplomati schen</w>
diplom acy</w>
deb ts</w>
compar is
be ach
an xi
al t
Trump ’s</w>
So wohl</w>
Sch rö
P L
Minder heiten</w>
Kyo to</w>
Kore a’s</w>
Impor te</w>
F a
Di agno
vo ting</w>
ung sum
ul d,</w>
tra ge
stand .</w>
siv e.</w>
regi me,</w>
lös en,</w>
j ün
help s</w>
heiß t,</w>
gesch ätz
gen s</w>
essi mis
environ ment,</w>
entsprech enden</w>
educ ation.</w>
east ern</w>
condi tion</w>
clos ed</w>
ci d
angel eg
Ron ald</w>
K unden</w>
G han
Dat en
A sy
über ra
zahl ung</w>
wom öglich</w>
wider .</w>
we ver</w>
solidar ity</w>
sex ual</w>
schätz ung</w>
ro ck
recht lichen</w>
profi tieren.</w>
nu cle
milit ar
mak ers</w>
kin ds</w>
k new</w>
j etz
ined sch
her o
hal t
ge plan
ge :</w>
fi zierung</w>
evol u
escap e</w>
ent ation</w>
da y.</w>
can ’t</w>
be ur
am t</w>
Wor t</w>
Verwal tung</w>
T rau
Ira k,</w>
Ir land</w>
Govern ments</w>
Ber at
” .</w>
қ ар
typ es</w>
ti ver
suggest ed</w>
seem ingly</w>
realisti c</w>
origin al</w>
ne ar-
n ai
lif e,</w>
liber ale</w>
level s.</w>
jord an
impro vem
höher er</w>
h al</w>
func tioning</w>
dramati cally</w>
cul ture,</w>
ck .</w>
at trak
ad ing</w>
ac cur
West jordan
T ay
Spar maßnahmen</w>
P sych
Liquidi täts
Imp ul
Glob alisier
Fat ah</w>
F el
El tern</w>
Best reb
B au</w>
zip lin</w>
wahr en</w>
ver kün
ung :</w>
su cht</w>
strategi es</w>
stag ni
revolution ary</w>
rejec ted</w>
regu lier
poin t.</w>
pl ed</w>
n ord
lon ger-
komp et
kn ap
fehl t</w>
fam il
f es</w>
economic ,</w>
cost ly</w>
connec ted</w>
char ge</w>
auf rechtzu
anzu kurbel
Pres id
Poli zei
Me dic
Invest ment
H en
Bush- Administration</w>
ver glichen</w>
unterneh men,</w>
tor y.</w>
soldi ers</w>
skill ed</w>
se arch</w>
ro wer
re fer
o unc
m bol
läng st</w>
le m</w>
l ern</w>
könn e</w>
ho urs</w>
gesch ütz
gesch äf
enti t
demon strate</w>
control .</w>
ak er</w>
ah .</w>
Som mer</w>
Sek tors</w>
Pro tektion
L ob
K ü
Haushaltsdefiz ite</w>
General sek
Epi dem
Einw anderer</w>
D än
Ch ance,</w>
2 4</w>
1990 ’s,</w>
überzeu gen,</w>
Öff nung</w>
y al</w>
wen den.</w>
verring ert</w>
vermei den,</w>
ump h</w>
succe ed</w>
stu di
state- owned</w>
spe ed</w>
ro se</w>
ow n.</w>
konzent rieren</w>
kebij akan</w>
hä us
hoch rangi
finanzi ert</w>
ens ei
direc tion</w>
blie b</w>
billi on.</w>
aus ende</w>
au di
ali n</w>
Ur spr
Mittel punkt</w>
Hung er</w>
Groß e</w>
F an
Der artige</w>
yar ak
we ek</w>
vermei den.</w>
su mm
struc tures</w>
sorg fäl
pres sing</w>
nor mali
li ger</w>
kore anischen</w>
kon tin
i al</w>
gra v
ger ingen</w>
g al
funktionier t</w>
finanzi eller</w>
fail ing</w>
f ei
erklär en,</w>
er fahr
entsprech ende</w>
demon stra
cost s,</w>
choic es</w>
car e
bü ro
a )</w>
Y es,</w>
Viel zahl</w>
V ari
Sh angha
Rich ter</w>
Rech ten</w>
Pakist ani</w>
Nieder lage</w>
N P
K al
Je der</w>
Indon esien</w>
Gefol ge</w>
Frü h
Establi sh
5 ,
Über rasch
ultim ate</w>
tren ds</w>
territori al</w>
sch war
rä u
renew ed</w>
regul ations</w>
pre dec
op tions</w>
notwendig ,</w>
natür liche</w>
manufac tur
mand ate</w>
ist :</w>
hiel t</w>
ge hei
g lich
fal sche</w>
dem anding</w>
com pri
ch ri
ch ec
blo ck</w>
billi on
attrac tive</w>
ann eh
Wirtschaf t
Terri tori
Süd kore
Sozial ver
S at
Re g
IWF -
Gefü hl
Fran ç
Fein d
Ca tho
Bes atz
Be weis</w>
B an</w>
A gain
A M
4 -
won ’t</w>
wom an</w>
wel come</w>
verhinder t</w>
undermin ing</w>
u de</w>
pres sures</w>
offen e</w>
kon ferenz</w>
kein es
iz ing</w>
it ation</w>
haushal ts
f and</w>
entfern t</w>
elimin ate</w>
dev a
che ap</w>
brauch en,</w>
au er
ad or</w>
Sol che</w>
Intel lektu
Gerich ts
C al
Afri kas</w>
201 3,</w>
- up</w>
über nehmen</w>
Über zeug
weg s</w>
tim es,</w>
th at.</w>
teu r</w>
terror ists</w>
subsequ ent</w>
securi ties</w>
ro bu
p ,</w>
oppon ents</w>
n falls</w>
min ori
job s.</w>
i mage</w>
gra vier
gewinn en,</w>
gest ärk
finan z
erwä hn
elec tions,</w>
el ements</w>
diplomati sche</w>
deva stat
dam it,</w>
da ily</w>
br ings</w>
W he
W hat
Teil nahme</w>
Steu er</w>
Sig n
Ni x
M ili
Le hre</w>
Ex pan
E lec
Cha ir
Bes itz</w>
Ab schwung</w>
3 -
&amp ;
über nehmen.</w>
us h
un weiger
th ri
st ain
spe ech
sp here</w>
schüt ter
schwieri gen</w>
schaff ung</w>
s sen</w>
pro mp
leist en.</w>
invest ing</w>
hom e.</w>
fa ith</w>
durch geführt</w>
colle agu
ck er</w>
bar ely</w>
argum ents</w>
Zinss ätz
Voraus setzung</w>
Revolu tion
Resol ution</w>
Politi cal</w>
Palästin a</w>
Kom mission
Höh ep
Ges i
F lexi
C ity</w>
Bri ten</w>
Beispiel e</w>
Bash ar</w>
Al ter</w>
194 5</w>
-S ah
viol ence.</w>
t as</w>
si m
sen ken</w>
schwer wie
school s</w>
recover y.</w>
popul ation.</w>
m än
li cal</w>
institu tion</w>
gespro chen</w>
ev ent</w>
emer ge</w>
eli tes</w>
elec tion.</w>
dis mis
desig n</w>
comp an
ch air
ander erseits</w>
an ten
after math</w>
Wahlkamp f</w>
Verbesser ungen</w>
Untersuch ung</w>
T ö
Res ult
Per sön
Nor men</w>
Milliar de</w>
Investi tion
Imp eri
F ut
Ein stellung</w>
2 2</w>
y ers</w>
wron g.</w>
wen det</w>
um gekehr
u paya</w>
sud den
sch ar
risk y</w>
r ust</w>
pro ven</w>
pi pel
mo b
it u</w>
isti scher</w>
introduc ed</w>
ing :</w>
happen s</w>
fri ends</w>
financi al-
ex tend</w>
eurozon e,</w>
es -
ear th
durchschnit tliche</w>
destruc tion</w>
bo dies</w>
behaup tet,</w>
angemessen e</w>
ang er</w>
Whe ther</w>
Vi k
Sü do
So ft</w>
Schlüs sel</w>
S up
Portug al,</w>
Niem and</w>
I N
G lücklicherweise</w>
Franç o
An lass</w>
$ 1.
zent en</w>
wi sh
wen den,</w>
u 00
ster .</w>
st elle</w>
st ance</w>
sam mel
reagi eren</w>
prof it</w>
port foli
popul ation,</w>
no tion</w>
n ur
k op
ir ,</w>
happ y</w>
forc e,</w>
erh äl
er ous</w>
enc y,</w>
el ek
boo sting</w>
auf en</w>
ani scher</w>
an lagen</w>
\ u00
Noten bank
Effizi enz</w>
CO2- Emissionen</w>
C apit
Br üs
Ber lin
Aspek t</w>
An y</w>
An lagen</w>
Afric a’s</w>
wor d</w>
w ake</w>
un ten</w>
u fen</w>
transform ation</w>
term s,</w>
su ici
sicher lich</w>
practi ces</w>
ne l</w>
lea ves</w>
häl t,</w>
group s,</w>
ger uf
gefähr lich</w>
er schi
comp uter</w>
blei bt.</w>
beschränk t</w>
benef its.</w>
be berapa</w>
balanc ing</w>
aus gelö
aul t</w>
auf er
app lied</w>
am ,</w>
ali siert</w>
ad ul
a stri
Ver träge</w>
Stra ßen</w>
Sco t
Präsidentschafts wahlen</w>
Pe ace</w>
Non etheless,</w>
Medi kam
Ma sch
K ürz
Jah re,</w>
Institu tion</w>
Franço is</w>
Einkommen s</w>
De part
Cent er</w>
über wach
ökonom ische</w>
z ung</w>
ver stehen</w>
v ed,</w>
te ch</w>
stärk eren</w>
show ing</w>
sch ä
resul ted</w>
not ably</w>
n un,</w>
k as
itä t.</w>
in hab
hum an-
hervor ,</w>
groß zügi
getro ffen</w>
ges timm
foc using</w>
ed ;</w>
e chen</w>
bail out</w>
Progno sen</w>
P ani
Mis strau
Kon tak
II .</w>
II ,</w>
Dis krimin
D utz
Auf wertung</w>
Altern ativen</w>
193 0er</w>
.   </w>
zusammen zu
wär en,</w>
vorher seh
ver zweifel
v ac
tier ende</w>
technologi schen</w>
säm tliche</w>
sun ni
sum ber</w>
schrit t
prolifer ation</w>
pro test
pi ec
open ed</w>
nö tigen</w>
n ungs
krati e</w>
ko hl
j anj
it i</w>
interest -rate</w>
ic s,</w>
h är
gezw ungen,</w>
gesetz te</w>
gener ated</w>
gefähr liche</w>
fähi gen</w>
direk ten</w>
best ra
Wun sch</w>
Ver brauch</w>
Syri a’s</w>
Po wer
Parli ament</w>
Mechan is
Kapaz itäten</w>
J ames</w>
Her z
H ur
G et
Finanz märkten</w>
F al
F OR
B rus
Ar mu
wom en’s</w>
ver ank
universi ties</w>
und oub
u a</w>
twenty- first</w>
transpar ent</w>
ti l
sich eren</w>
persön liche</w>
p lo
p embang
mer hin</w>
medi um-
konn ten.</w>
job s,</w>
gesp iel
gesch ehen</w>
exten ded</w>
ethni schen</w>
emer gency</w>
ci ous</w>
charg es</w>
ch ampi
anni vers
an en</w>
T -
S timm
Politik er,</w>
Länder n.</w>
Kon zern
Kohlen diox
J ong-
H ab
Georgi a</w>
Brus sel
Bank ’s</w>
An nahme</w>
199 5</w>
к ө
wher e,</w>
sm ,</w>
si x
si ver</w>
sho ck</w>
ro le.</w>
pre fer</w>
on e
mark tes</w>
kon zip
kan ,</w>
invest asi</w>
ful ,</w>
ex i
co al</w>
chron ic</w>
ch te,</w>
bili ties</w>
attrac t</w>
ation ”</w>
ar di
W W
Tru e,</w>
Rechtsstaat lichkeit</w>
Proble me,</w>
K ru
Gebie te</w>
Den g</w>
D roh
Aus land
Afric a.</w>
199 2</w>
д е</w>
withdraw al</w>
verlier en.</w>
uni on.</w>
tic ,</w>
ther e.</w>
ter ran
s an</w>
pe ti
o si
kei ten.</w>
gew esen,</w>
führ te.</w>
cri tics</w>
bor rower
beginn en,</w>
be handelt</w>
aus einander
at ori
arbei tung</w>
ang ka</w>
Zwei fel
Zivili sten</w>
Ver schuldung</w>
Ri v
Rei ch
Min dest
Kon zent
Ham as
H ier
Ever y
Ahmad inedsch
zy kli
wro te</w>
way s,</w>
verring ern,</w>
universi ty</w>
tri fft</w>
spezi fi
selb st.</w>
sac ri
s ales</w>
preser ve</w>
posi tiven</w>
play ers</w>
on er</w>
off set</w>
o ck
month s,</w>
lea der,</w>
h as
expan ded</w>
er schwer
enab led</w>
de flation</w>
con cre
bo ard</w>
ber uf
b old</w>
assum ed</w>
an spru
\u00 27
Wiederauf bau</w>
Unterdrück ung</w>
Respek t</w>
Mik ro
Ma astri
Krem lin
Er der
Britain ,</w>
Bil d
B ig</w>
Ahmad inej
ж е
zus tim
wär ts
visi ble</w>
ver leih
unter g
tra de.</w>
the ast</w>
sol ar</w>
sang at</w>
pol ari
occup ation</w>
negoti ating</w>
mon opol
ker ja</w>
jen igen,</w>
it able</w>
ges prä
g reifen</w>
entschei den</w>
eigen es</w>
e ar</w>
de creas
believ es</w>
bei tragen</w>
be wegung</w>
bau en,</w>
ambi tious</w>
al leg
ag es,</w>
ac com
aband on</w>
Wh ite</w>
Wel le</w>
W et
Verbrauch er
Mittel schicht</w>
Milit ä
Lib ya</w>
Haushaltsdefiz it</w>
Bil anzen</w>
Aspek te</w>
? ”</w>
200 6,</w>
20 50</w>
. .</w>
&# 45
überrasch t</w>
vi c</w>
ver schwin
ver einig
targe ted</w>
sor ganis
separ ate</w>
retur ned</w>
regel n</w>
r y,</w>
plann ing</w>
par aly
nar row</w>
logi c</w>
le ge</w>
kon om</w>
in duc
fig ures</w>
es sions</w>
ent ar
empha sis</w>
ei gh
direc ted</w>
dien en,</w>
capit al.</w>
call y,</w>
c atastroph
bad ly</w>
an ch
am an</w>
ab sur
Sw ed
S -
Rom a</w>
R um
Pro test
Palest ine</w>
N one</w>
Moderni sierung</w>
M ac
K auf</w>
G ül
Er st</w>
Er de</w>
ECB ’s</w>
Di ejen
Afghanist an.</w>
A gre
( including</w>
wi der,</w>
weiter .</w>
ver lu
u al
tä r</w>
twi ce</w>
ti erung</w>
surpri se</w>
schütz en,</w>
ries igen</w>
repres ented</w>
pur pose</w>
po or,</w>
oll ah</w>
mas yarak
it ly</w>
irgend wann</w>
interest s,</w>
hoh em</w>
form ation</w>
el t
eh en.</w>
drit ten</w>
bezü glich</w>
appe al</w>
Yo u</w>
Wachstums rate</w>
Sch ad
S onn
F uk
Effek t</w>
Bünd nis</w>
Bedürf nisse</w>
Ab geord
Über prü
Äng ste</w>
zwing en,</w>
zw anz
wirk liche</w>
wirk en</w>
w under
un ited</w>
teil en,</w>
taus ende</w>
surv eill
stat tung</w>
rul ers</w>
re al-
pa th
out comes</w>
ne o
mob ile</w>
me -
m es,</w>
m ein</w>
län der,</w>
komm uni
kes eh
in ely</w>
he utzutage</w>
g ä
fl uss</w>
fest zu
ev alu
en ),</w>
coun ter</w>
cha o
bra in</w>
bau en.</w>
b ill
a bet
Wahr neh
V o
Un g
US- Wirtschaft</w>
Reser ve
Pro pag
O li
Minder heit</w>
Med ve
Inn en
Gemein schaften</w>
G- 8</w>
G addaf
Eigent ums
Bedeut ung.</w>
200 4,</w>
- -</w>
ды .</w>
б а
you th</w>
wor se.</w>
wer te</w>
verbesser n,</w>
trans fers</w>
te ter</w>
te )</w>
stabilit ä
st s.</w>
st amm
sor ge</w>
scenari o</w>
require ments</w>
re d,</w>
rar ely</w>
p ing</w>
or thodox
n äher
mone y,</w>
li eren</w>
justi fy</w>
j ut
ins ul
genom men
di verse</w>
deu ten</w>
big ger</w>
begrenz t</w>
bege gn
aus ü
am b
a x
W ar,</w>
Sho uld</w>
Kom pet
K anz
Gu ant
Gesch lech
Bedar f</w>
An lei
A gr
198 0</w>
vorgesch lagen
vig or
vari ety</w>
tradi tion</w>
sub -
se g
s lo
s cre
prei sen</w>
pen du
op pose</w>
one- third</w>
no ch:</w>
nimm t,</w>
n ä
medizin ische</w>
m at</w>
lat ter</w>
kon struk
katastrop hal
issu es.</w>
ini erung</w>
inevit able</w>
ic a</w>
i a,</w>
gir ls</w>
fä llen</w>
ex pl
ermöglich en.</w>
erg än
ein geführt</w>
drasti sch</w>
co her
betro ffen</w>
bah an</w>
appoin t
\u0027 s</w>
T empo</w>
Poli sh</w>
Poli cy</w>
P fl
Mis sion</w>
M isch
Li cht</w>
Kol oni
Institu tionen,</w>
Greensp an</w>
Flüchtlin gen</w>
E t
Direk t
D et
Bürger krieg</w>
Bush ,</w>
5 .
ä le</w>
wäch st</w>
wirk same</w>
war ning</w>
tür kische</w>
televi sion</w>
sti sche</w>
sing ly,</w>
sich ere</w>
s elling</w>
regul ator
regel mäßig</w>
rech ts</w>
possi ble,</w>
occup ied</w>
isch erweise</w>
inves tieren,</w>
intellec tu
i e,</w>
frei willi
for tsetz
fir st-
destro y</w>
defin e</w>
darstell t.</w>
com mit</w>
ab rup
Wer ten</w>
Vik tor</w>
Ver letz
V iz
T B</w>
Righ ts</w>
Par tn
Me er</w>
Machth aber</w>
L ö
G ord
G as</w>
En des</w>
E hr
Drit tens</w>
Brutto in
Be weise</w>
196 7</w>
wissenschaft ler</w>
vertre ter</w>
verfü gen,</w>
ster ben</w>
spar tei</w>
sol ches</w>
si te</w>
releas ed</w>
regar ding</w>
pro long
neu n</w>
nah men.</w>
mer t</w>
in side</w>
in es,</w>
erle bt</w>
er “</w>
dramati sch</w>
dist ingu
disc oura
cross- border</w>
corpor ations</w>
contribu tion</w>
conc ei
commit te
com b
co ali
challen ges.</w>
bl ack</w>
billi on,</w>
betra chten.</w>
benö tigt</w>
anc y</w>
ak s</w>
Rück zug</w>
Metho de</w>
Kol umbi
K as
Gesam tn
Dok um
Deut schen</w>
B in
Ak tionen</w>
A tt
е н</w>
z a</w>
vor her</w>
undoub tedly</w>
un it
um so</w>
tra -
te ten,</w>
stabil en</w>
schw ank
schul dig
sa h</w>
re ad</w>
re action</w>
parli ament</w>
lich e,</w>
lag en.</w>
la im
k ill</w>
ik i
handel n.</w>
geseh en,</w>
genutz t</w>
ge d,</w>
g ut
f ate</w>
equi p
entwickel t.</w>
entwickel t,</w>
ent spricht</w>
di ent</w>
cle ar.</w>
anschließ end</w>
ad o
Wirtschafts leistung</w>
Wer den</w>
Tim es</w>
Ter ror</w>
Still ,</w>
S he</w>
Ra ther</w>
Ph ysi
Millenni um</w>
Kredit geber</w>
K ein</w>
I F
Gewerk schaften</w>
Ab u</w>
zi elle</w>
ver mehr
recht liche</w>
re ci
perf ect</w>
pat tern
p h</w>
k en.</w>
im port</w>
höch ste</w>
h a</w>
ge zeigt</w>
ff ek
fam ous</w>
emb ly</w>
einzel ne</w>
ei ger
eh mig
der eg
deci sive</w>
ci li
beteili gt</w>
beg onn
be zo
au shal
Sied l
Periph erie</w>
Nul l
Mari o</w>
M es
K ern</w>
K eine</w>
Holl ande</w>
Gre mi
Goog le</w>
Extrem isten</w>
Entwicklung shilfe</w>
E R
Dän em
C ast
Beweg ungen</w>
Bes ei
überwäl ti
z äh
ver schw
super vis
sudden ly</w>
struk tur</w>
steigen der</w>
so dass</w>
pro per</w>
p fl
notwen dige</w>
li t</w>
gesetz ten</w>
gel assen</w>
f li
erg ri
er zähl
er y</w>
enthusi as
enjo y</w>
ell en,</w>
bedeu ten</w>
ausge geben</w>
akzep tieren,</w>
adi ly</w>
Z um
Wider spruch</w>
Wei l</w>
Todes fälle</w>
Q E</w>
Nach richten</w>
Mein ungsum
Imm ig
Fre unde</w>
Fo und
Entsch lossen
Ein richtungen</w>
E rop
Ch il
weak ening</w>
viol ence,</w>
verhandl ungen</w>
verfolg en.</w>
un s,</w>
toda y's</w>
ten )</w>
te uren</w>
t um</w>
t te</w>
suppor t,</w>
schi ck
s wa
re tär</w>
ra ce</w>
our sel
occ a
möglich .</w>
mei st</w>
mehr .</w>
lä h
know led
i p</w>
hör en</w>
hier für</w>
hi du
h ang
fir e</w>
f unded</w>
expen se</w>
eri sche</w>
citiz ens,</w>
appar ently</w>
advan ta
addi tion,</w>
academ ic</w>
Wh o</w>
Th om
Sen ator</w>
Ru f</w>
Progra mm
P R
Me eres
Führ ung
ös er</w>
ter ror</w>
ten der</w>
t es,</w>
success fully</w>
sti schen</w>
sp ac
schw ach</w>
oper ating</w>
op enn
no ch,</w>
mäch te</w>
mar ri
li m</w>
kost en
k aw
j a,</w>
il s</w>
hät ten,</w>
hum ili
govern ing</w>
fra c
fem ale</w>
erhöh ungen</w>
emis sionen</w>
demograph ic</w>
cyc lical</w>
bezahl t</w>
ausländi scher</w>
Wor ten</w>
Thre e</w>
Quar tal</w>
Präsidentschafts kandid
Par t
HA V
Chair man</w>
As soci
An nahme,</w>
19 50
( C
zusam men,</w>
w ater
ver fass
u kan</w>
trä gen</w>
t as
stit utes</w>
perf ek
off ering</w>
nation alism</w>
n un
mit t
memili ki</w>
m ol
m einem</w>
leich ter</w>
lei den
le hn
k a.</w>
indi rek
gelei tet</w>
fall .</w>
es cal
em power
em ,</w>
contra st</w>
bedeut enden</w>
ar ra
Welt wirtschafts
Viel falt</w>
Stabili sierung</w>
Pub lic</w>
Net anj
L ad
K las
Höhep unkt</w>
Hongkon g</w>
G old</w>
Dra gh
т т
z ed
weak en</w>
we de
ver nicht
tri al</w>
sophistic ated</w>
schwieri ge</w>
schn elle</w>
schlag en.</w>
sag t</w>
re con
mi th
mal aria</w>
kontro llen</w>
har m</w>
ful fill
f law
f eu
encoura ged</w>
emi cal</w>
do or</w>
do ,</w>
deliver ed</w>
ausge wo
arran gements</w>
Ver folg
Un sicher
T ages</w>
Sch wä
Q addaf
Nor mali
Med wede
M ann
Kohl enstoff
J ews</w>
Hus sein</w>
Hez bollah</w>
Harv ard</w>
H igh
Frau en,</w>
Einwander ung</w>
E very</w>
20 ,</w>
199 4</w>
z .
verschmutz ung</w>
vers äum
vern ach
unge achtet</w>
sup eri
strugg ling</w>
st uf
sp ir
rais es</w>
pack age</w>
man n
ma d</w>
le gen
konn te,</w>
itself ,</w>
implement ing</w>
hör en,</w>
hom es</w>
heri gen</w>
gewähl te</w>
ful l-
frequ ently</w>
exist ence</w>
exerc ise</w>
ex z
deut liche</w>
curren cy,</w>
consequ ences.</w>
bi d
betro ffenen</w>
betrach tet,</w>
beg ünsti
all erd
ali k
acc used</w>
Weg ,</w>
V ir
Um struk
Su dan</w>
Sp ec
Sp anish</w>
Nu clear</w>
M üt
Glau ben
Durchschnit t</w>
Besei tigung</w>
Atom waffen
ғ ы</w>
н е</w>
ü hen</w>
Ö ster
trig ger
t i</w>
succ ess.</w>
strateg y.</w>
st op
signi fi
schul den
s ab
pro test</w>
predict able</w>
ou ts</w>
mer .</w>
her ,</w>
gew onn
geb rau
func tion</w>
for est
finanzier en.</w>
ex t
erforder lichen</w>
erfolg reichen</w>
era dic
ent stehen</w>
enga gement</w>
en rich
betri fft</w>
ar tigen</w>
addres sed</w>
Washingt on,</w>
T ou
Steuer senkungen</w>
Radi k
Neu e</w>
Mitglied staaten</w>
Medi terran
Malay sia</w>
Land es.</w>
Konflik ten</w>
Gelegen heit,</w>
G ates</w>
Ein er</w>
C .</w>
Beij ing</w>
Be fore</w>
Auf gaben</w>
Arbeits losig
Arab ischen</w>
AK P</w>
um strit
st ür
run ,</w>
righ t,</w>
ren minbi</w>
re plac
ran ken</w>
net work</w>
mone y.</w>
low ing</w>
li qui
kohl enstoff
inter essen</w>
hear d</w>
fan gen</w>
execu tive</w>
ergi bt</w>
environ ment
em m
ch s
beg ri
bar es</w>
alle l</w>
ai kan</w>
Tran spor
Selbst mor
Posi tionen</w>
Manage ment</w>
Mah mou
Def ini
Debat ten</w>
Ch i
zw an
zent rali
winn ing</w>
we a
vor ge
ver gen
unter st
un sustainable</w>
terror ism,</w>
ter j
techni schen</w>
stim men</w>
staat lich</w>
st echnologi
so bald</w>
schri eb</w>
sa y
sa at</w>
recession ,</w>
politi k
peac e.</w>
nä her</w>
niedri geren</w>
nicht -
multi ple</w>
lang er</w>
l ap
jen e,</w>
h us
gesti egen.</w>
g ent
fas c
fahr ts
erziel t</w>
er wer
enc y.</w>
en gen</w>
dar stellen.</w>
da cht</w>
con tent</w>
bilater alen</w>
betru g</w>
af gh
abilit y,</w>
Ver sagen</w>
Sol ar
S eri
Pek ing</w>
Mittel me
Hypothek en
D NA</w>
Brenn stoffe</w>
B ,</w>
Ar e</w>
Agr ar
1 1,</w>
і р
wel cher</w>
tra t</w>
toge ther.</w>
stell t,</w>
sch ür
roo t</w>
reli ance</w>
por tra
per usah
pat rio
on to</w>
net works</w>
neighbor ing</w>
longer- term</w>
li ved</w>
j ak</w>
in ländi
ik lim</w>
ig ht</w>
führ te,</w>
employ ment.</w>
direc tion.</w>
deu tet</w>
d ol
coun t</w>
ch em</w>
big u
ation ’s</w>
ar sen
appreci ation</w>
ac tors</w>
W om
Treibhaus gas
TP P</w>
Mahmou d</w>
G and
Cy ber
Atmo sphäre</w>
Alli anz</w>
200 3,</w>
2 1</w>
о м
verbesser t</w>
v est
transpar ency</w>
tra ck</w>
t ant
survi ve</w>
si ,</w>
sensi ble</w>
predic t</w>
pl um
par a</w>
meaning ful</w>
ma themati
issu e.</w>
ga be,</w>
fest geleg
fein d
erreich t.</w>
erforder lich,</w>
ene i</w>
c ast
budge ts</w>
agi an</w>
ad verse</w>
Sch weden</w>
Mäch te</w>
Gegent eil</w>
Emission s
Besorg nis</w>
y ,”</w>
weak ness</w>
sur ge</w>
reich sten</w>
reich ,</w>
regime ’s</w>
purchas es</w>
negoti ate</w>
mittl eren</w>
lie ber</w>
lich ste</w>
i atri
handel t,</w>
government s.</w>
ec ken</w>
defl ation
das selbe</w>
com bat</w>
c it
ativ es,</w>
ann ya</w>
amp #
Notwen digkeit,</w>
Nachrich ten
M au
K is
Il lu
Govern ment</w>
Extre mis
D em</w>
Bernank e</w>
Auf ru
unweiger lich</w>
so und
senk en.</w>
sec ond
sch licht</w>
righ tly</w>
ref us
pres ented</w>
oper ate</w>
neu er
liv es.</w>
li schen</w>
inter ess
hom o
har r
fi ziert</w>
ern ann
de t
curren cy.</w>
c lu
as en</w>
ange wiesen</w>
alu i</w>
aff ord
accom mod
Win d
Türkei ,</w>
Schwä chen</w>
S ah
Resear ch</w>
Ken ne
Ged anken</w>
Flüchtling s
F ar
2008 -
üs si
weit reich
verpflich tet</w>
veran las
ver hän
ti er</w>
ther more,</w>
supp lies</w>
steu ern</w>
stand en,</w>
rup pen
ri val
produc ers</w>
priv ater</w>
poll s</w>
pain ful</w>
p e</w>
p are</w>
objec tives</w>
multin ation
missi le</w>
lo ck</w>
k apaz
islam ische</w>
initi ally</w>
hil f
gewöhn lich</w>
geh enden</w>
fol gende</w>
fer tili
enab ling</w>
ch ain
besch ri
beige tragen,</w>
auf nahme</w>
annivers ary</w>
ander e,</w>
ad ver
Zu r</w>
W eb
Thail and</w>
St ar
Spiel raum</w>
Sad dam
Reicht um</w>
Pra kti
Peop le’s</w>
Mar x
M OS
Jahr est
Führungs rolle</w>
Fir st</w>
Bro thers</w>
Afgh an</w>
201 5,</w>
ä s
wat er,</w>
umbu han</w>
trans form</w>
surpri sing</w>
some what</w>
s es
ru le.</w>
risk s.</w>
reli able</w>
ph ase</w>
nuk le
n ess
member s,</w>
k tion</w>
in ability</w>
gi e</w>
gesch lossen
fan den</w>
elec tri
ef ,</w>
ben ach
ann äher
ali g
acc ession</w>
Stell ung</w>
Rechn ung</w>
Mosk au</w>
M ärk
Kredi ten</w>
Gaz ast
Bef rei
Be yond</w>
über prü
wissen schaften</w>
tur ns</w>
stärk en</w>
st el
st ein</w>
sieh t,</w>
sho cks</w>
schein t,</w>
re tain</w>
quantit ativen</w>
over se
o y
nis ses</w>
member s.</w>
intern en</w>
in adequate</w>
ide ology</w>
i kan</w>
fri eden</w>
fossi len</w>
f en
exam ples</w>
doppel t</w>
cat eg
Ziel ,</w>
Ver sion</w>
Prei sen</w>
Kin d</w>
Justi ce</w>
Ju gend
Indi k
In tegra
German s</w>
Fre e</w>
Erder wärmung</w>
D P</w>
д ы</w>
überzeu gt,</w>
yo ung
wor ried</w>
wel le</w>
verfolg en,</w>
trigger ed</w>
ti gh
reve aled</w>
re member</w>
ran g</w>
philosop h
peri o
out si
op ho
om po
new ,</w>
main stream</w>
limit ing</w>
lands produk
komplex en</w>
inves tieren</w>
genü gend</w>
gem essen</w>
fühl en</w>
et ten</w>
du k</w>
dis cre
der ed</w>
d .
consist ently</w>
concre te</w>
ang est
Vorstell ung,</w>
Ver sicherungs
Sol ange</w>
Palästinenser n</w>
Noten banken</w>
Mom ent
K enn
Hypothek en</w>
Fur thermore,</w>
Eigen hei
EL E
Di men
Bu ch
Bo den
Aut om
Al an</w>
201 0.</w>
л а
zusetz en</w>
woll te</w>
wei tem</w>
technologi sche</w>
se a</w>
respon ded</w>
quo ten</w>
proc esses</w>
open ly</w>
om s</w>
ing kan</w>
indi rec
hei z
ger aten</w>
geb or
explan ation</w>
ever -
et ’s</w>
er ter</w>
eg t</w>
devastat ing</w>
da vor</w>
c eas
bedeut en,</w>
be am
areas .</w>
ar bit
al ong
Verbin d
Toda y’s</w>
T wit
T ier
Rom ney</w>
Rech t,</w>
Politik .</w>
Mar sh
Gord on</w>
Entwickl ung,</w>
At lantic</w>
AS E
ägyp tischen</w>
zwan zig</w>
zi el</w>
wom en,</w>
wer fen</w>
wenig sten</w>
verantwor tungs
ver zeichn
ursprüng lich</w>
uh an</w>
t ack
survi val</w>
stimm t</w>
statt fin
st ress</w>
st eri
sk y</w>
ren z</w>
radik ale</w>
olog i</w>
oli gar
nowad ays</w>
moder n
letz ten
kün fte</w>
kam ,</w>
invest ed</w>
ide al</w>
har ma
har der</w>
gi f
gen d.</w>
g utes</w>
effizi ent
e wi
drän gt</w>
conduc t</w>
besch ädig
bekann ten</w>
be droht</w>
as h</w>
ag a</w>
afri kanische</w>
Völk ermor
Ver öffentlich
Untersuch ungen</w>
Su stain
Staat en.</w>
Rendi ten</w>
Koh le</w>
K önn
Hän de</w>
H or
Belast ung</w>
ör per</w>
wel chem</w>
w ak
valu es.</w>
untergra ben.</w>
th anks</w>
te kn
ta gi
surpri singly,</w>
stand es</w>
spec tac
si an</w>
schein end</w>
predec ess
parti es,</w>
or ts</w>
nis .</w>
mach ten</w>
leader ship.</w>
inclu sive</w>
im posing</w>
hosp it
har d-
gu id
gg ed</w>
et schen
ein sei
diesel be</w>
cul tur
corrup tion,</w>
constrain ts</w>
con fin
but ed</w>
bil anz</w>
allerd ings,</w>
alismus ,</w>
a el</w>
Y en</w>
Ver kauf</w>
Tit el</w>
T T
S timmung</w>
Q E
M ess
Kru g
HAV EN</w>
E qu
Bor is</w>
B hut
z ation.</w>
writ ten</w>
um zusetzen.</w>
te ur
stei gern</w>
soci al-
re view</w>
lack s</w>
je op
interest ed</w>
implement ation</w>
il ed</w>
gener ations</w>
enlar gement</w>
enc es,</w>
em ent
down ward</w>
co h
ch te.</w>
beunru hi
beträcht liche</w>
ber au
asiati sche</w>
an alo
al so,</w>
P as
Mand at</w>
Inform ation
Ge wi
E isen
Demo cracy</w>
Begri ff</w>
B rown</w>
Anrei z</w>
AIDS ,</w>
ück e</w>
ü hr
Überein kunft</w>
Äu ßer
z o</w>
ver zi
um s,</w>
u d</w>
stark es</w>
stark er</w>
st ories</w>
sec on
region aler</w>
re präsen
projek te</w>
plac e,</w>
n ine</w>
n d</w>
möglich keiten</w>
mon o
mein en,</w>
konserv ativen</w>
knap p</w>
häl t.</w>
hin weg</w>
hei l
grenz überschrei
geführ te</w>
ga ther
fol gen
extra ordinary</w>
erwar tet,</w>
enterpri ses</w>
en es</w>
em ent,</w>
elec tions.</w>
demokrati sch</w>
d u</w>
ch ter</w>
bekämpf ung</w>
bekann t,</w>
ausge prä
Prozent .</w>
Nor thern</w>
Mod elle</w>
Mexico ,</w>
Mal ari
Intel ligen
Energi equ
Einfl uss
Do ha</w>
Bewus stsein</w>
р о
wirtschaf t,</w>
ting g
ti ghten
th ing.</w>
ter ing</w>
sich ern.</w>
si h</w>
shif ting</w>
righ t-wing</w>
ri v
re verse</w>
progres sive</w>
par ty,</w>
par lam
pakist anischen</w>
p .</w>
ori zon
offizi ell</w>
leader s.</w>
invol ve</w>
ho wever</w>
hil fe</w>
geprä gt</w>
geno ci
gener ating</w>
er rich
er fordern</w>
emo tion
divi de</w>
decision- making</w>
con vin
bom b
blas e</w>
asy mmetri
approach es</w>
ant s.</w>
Tsch ech
Stra ße</w>
St ellen</w>
Männ ern</w>
Mosco w</w>
Iraq ’s</w>
Demokrati e,</w>
D or
Brett on</w>
6 00</w>
year -
ver halten</w>
tradition ell</w>
stab ile</w>
st ranten</w>
st ake</w>
pro sec
poor .</w>
percep tion</w>
multi p
man n</w>
lea st,</w>
in deb
ey es</w>
d ler</w>
complic ated</w>
bur g</w>
adv ances</w>
ach t
Welt bevölkerung</w>
Wachstum ,</w>
Sun nit
Pro du
P azi
O ther
Medi en
Lebens standard</w>
Lab our</w>
K ämpf
Instru ment</w>
I D
Hur ri
Bo om</w>
ASE AN
7 ,
-Sah aran</w>
überra schen
z en
way s.</w>
ur teilung</w>
undermin ed</w>
t . </w>
succ eeded</w>
stri ke</w>
stabili ze</w>
solu tion.</w>
sch t</w>
religi on</w>
rejec t</w>
re vol
progra m,</w>
pro tektion
minim um</w>
m einen</w>
k atan</w>
insi st</w>
es e,</w>
e "</w>
buil d
bring t.</w>
benef ited</w>
ar en
am bigu
al an</w>
administration ’s</w>
administra tive</w>
a dig
Tun esien</w>
Tu ber
Süd afrika</w>
St am
R is
Proble m,</w>
Nachfol ger</w>
Kä mp
Ko ordin
Demon stranten</w>
( $
&amp ;</w>
weapon s.</w>
vo ice</w>
ver standen</w>
ver sammlung</w>
ver mögen</w>
ungs weise</w>
umfas st</w>
threat ens</w>
ta g</w>
surpl uses</w>
substanti ally</w>
sub stan
stat ement</w>
sen z</w>
rec ru
re ver
re pa
rat en,</w>
politi ker</w>
organis ationen</w>
nah me
le y</w>
kü mm
great ly</w>
gang en.</w>
fundament ally</w>
fal schen</w>
environ ment.</w>
contro versi
c ells</w>
blo od</w>
an gesehen</w>
ag es.</w>
Z im
Voraus setzungen</w>
Verwal tungs
T sun
T est</w>
Regierungs führung</w>
Klim a</w>
H ere</w>
Finanz systems</w>
Ex port</w>
E ach</w>
Dar le
wi den
w et
vermei den</w>
verbrei tete</w>
ver sicher
tin y</w>
st er,</w>
sozi al
simil arly</w>
sho ck
re ality,</w>
program .</w>
pro secu
pol ar</w>
peop le
p ft</w>
niedrig ere</w>
maß geb
l erin</w>
kamp f</w>
in no
impro vement</w>
ili bri
excep tion</w>
ethni sche</w>
erle b
er s
draw n</w>
disa stro
deb ates</w>
d ank</w>
compon ent</w>
com fort
aus gestat
ank ur
aff ir
ach tung</w>
abgel ehn
T eu
St rom</w>
Länder .</w>
Gol f
Gegenteil :</w>
Er träge</w>
Ein dämm
Ein druck</w>
Diskrimin ierung</w>
Ch ange</w>
C lau
Bek enntnis</w>
Ara fat</w>
wor se,</w>
wirtschaft liches</w>
transform ed</w>
tor en,</w>
techni sche</w>
t less</w>
steck t</w>
seek s</w>
res ist</w>
pursu ed</w>
poor er</w>
poin ted</w>
plann ed</w>
partner ship</w>
over .</w>
op eri
nis se,</w>
n ul
m exi
loss en.</w>
in effizi
glob ales</w>
ger et
geh andel
f ought</w>
f abri
ernsthaf ten</w>
er ungs
dre am</w>
conflic t,</w>
bewe gen,</w>
ati c</w>
ass en.</w>
ap kan</w>
ankur bel
ac t,</w>
Kub a</w>
Konflik ts</w>
Inform ation</w>
Hit l
Ha iti</w>
F ok
En th
Da vo
Con serv
Austrit t</w>
( M
ғ ан</w>
ме н</w>
zieh ungs
w ü
v ar
unden e</w>
thre e-
tenden ziell</w>
symp tom
stän dig
struktur elle</w>
sensi tive</w>
r ent</w>
opport uni
nucle ar-
neu r</w>
lear ning</w>
l a</w>
kl us</w>
gewährleist en.</w>
gesch ick
expendi tures</w>
erklär en</w>
ent ly.</w>
ein s</w>
diversi ty</w>
cho o
bei der</w>
b ann
approach ,</w>
appro val</w>
anfäl lig</w>
anc es.</w>
Yu gosla
U g
Rec ent</w>
M ak
Lu ft</w>
L A
Inter ess
Hig h</w>
German y.</w>
Erinn erung</w>
E d
Aut o
Aust ausch</w>
200 9.</w>
weis ungen</w>
wei ch
tief e</w>
senti ment</w>
schw ä
roo ted</w>
ri se.</w>
pun ish
pri son</w>
particip ate</w>
or der,</w>
m au
komp le
it y-
inte gr
hom e
ge eig
ex emp
every where</w>
eurozon e.</w>
euro ,</w>
enc ed</w>
conven i
aufstre benden</w>
appoin ted</w>
V alle
Um wel
T ok
Saudi s</w>
L en
Dikt atur</w>
C )</w>
Bo ard</w>
Bei tritts
ut ing</w>
unilater al</w>
tur bul
transat lanti
trad able</w>
tra vel
st ets</w>
sp f
respon ses</w>
quar ters</w>
purch ase</w>
particip ants</w>
mit ,</w>
free- trade</w>
frag ment
for e,</w>
fi es</w>
effectiv eness</w>
dies .</w>
d d
condi tions,</w>
capit al-
ber k
angem essen</w>
ang kan</w>
W o</w>
Ukrain e.</w>
U -
Pakist ans</w>
P B
Mechanis men</w>
Komp lex
K i
K atastroph
Jo se
Indi a.</w>
Febru ary</w>
Durch setzung</w>
Au ge</w>
5 00
201 4,</w>
( though</w>
( E
ze ch</w>
z ed,</w>
wei b
verlang t</w>
ver treten</w>
tu rier
thir ds</w>
star ters,</w>
selbst verständlich</w>
s ed,</w>
renew able</w>
pap er</w>
owner ship</w>
mas uk</w>
lei det</w>
legis lat
invol ving</w>
identi fied</w>
ha k</w>
go od.</w>
gesell schaften</w>
gefähr lichen</w>
forc es,</w>
facilit ate</w>
er :</w>
ep iso
ent ren
eb o
discipl ine</w>
derar tiges</w>
citiz ens
cap ture</w>
c ast</w>
bub bles</w>
bir th</w>
ber g</w>
ativ es.</w>
asi de</w>
ak tive</w>
Y em
Wirtschaftswachst ums</w>
W TO
Sozi all
Sicht weise</w>
Partei ,</w>
Hus sein
Gipf el
E C</w>
D .</w>
Bud get</w>
Bruttoin landsproduk
Bal kan
Ambi tionen</w>
Am ong</w>
„ Die</w>
“ a</w>
work ers,</w>
war ned</w>
vollstän dige</w>
ti smus</w>
ten ds</w>
stan z</w>
sol d</w>
ries ige</w>
radik alen</w>
provi sion</w>
politic al,</w>
nutz en.</w>
mechanis men</w>
lau tet</w>
ismus .</w>
instru ments</w>
incom e,</w>
har ten</w>
gen es</w>
fü llen</w>
fl ü
favor able</w>
erhöh t.</w>
dem and
d ak
ch st
brei ten</w>
beginn en</w>
be treff
asy l
ar d,</w>
andin avi
ac tion,</w>
absol ut</w>
a ;</w>
Vereinbar ungen</w>
T V</w>
Soziall eist
P et
M em
Konfron tation</w>
K aliforni
Geschä fte</w>
Gericht shof</w>
EA N</w>
Durchschnit ts
D i</w>
C zech</w>
Bul g
Ar ch
Abdul lah</w>
Ab schluss</w>
AS EAN</w>
A ben
( a</w>
viel versprech
ut ama</w>
unterg rä
trei ben</w>
sprich t.</w>
spar tei
risk ,</w>
punk t,</w>
promin ent</w>
prolong ed</w>
pendu duk</w>
par allel</w>
par adox
nei gen</w>
lin ie</w>
leben den</w>
k oll
forc es.</w>
et s,</w>
e ,”</w>
der ing</w>
da d</w>
circumst ances</w>
childr en.</w>
ch emical</w>
ausge glich
ange kündig
W ah
Thom as</w>
Qu o
Milose vic</w>
M eg
Lin ke</w>
J ohn
J el
Irel and,</w>
D as
B ak
Amerikan ern</w>
ä ni
yiel ds</w>
wi esen,</w>
war ten,</w>
viel fach</w>
verlor en.</w>
verl ust</w>
u .</w>
tief er</w>
ti s</w>
sligh tly</w>
shar es</w>
sch ol
represent atives</w>
reluct ant</w>
plan ts</w>
ob vi
mittel s</w>
mittel n</w>
mist ake</w>
m ie
italien ischen</w>
inflation ary</w>
f ung
er fas
en ge</w>
emp iri
dre w</w>
cooper ation.</w>
contin ent</w>
con tagi
character ized</w>
bu at</w>
bel ebung</w>
auf rechter
ab seh
Wandel s</w>
Vereinig te</w>
US D</w>
Tibe t</w>
Tali b
S til</w>
Mar ine</w>
Investi tion</w>
Hit ler</w>
Gewi cht</w>
Fer tig
E duc
Ch em
Ch ef
C yp
C lear
201 5.</w>
- and-
ә не</w>
äng lich</w>
Ärz te</w>
weak ened</w>
ver lei
ver lassen,</w>
tap i</w>
tal k
stra c
roo ts</w>
rei sen</w>
r uns</w>
purchas ing</w>
p ump
orientier ten</w>
olog y,</w>
män n
mili ti
ma p</w>
inflow s</w>
imag in
ges te
gang en,</w>
gab ,</w>
eth ical</w>
ent ered</w>
dien st</w>
den c
de vis
cour se.</w>
consequ ence</w>
childr en,</w>
blo ß</w>
bezahl en</w>
bekann te</w>
b and</w>
aus ger
an gesch
al beit</w>
W ett
Ver sorgung</w>
Schi iten</w>
S ech
S an
Nam un</w>
Markt wirtschaft</w>
Kredi tneh
Hist ori
H im
Einschränk ungen</w>
Doll ar-
Diejen igen,</w>
Counc il,</w>
Bah ra
Auff ass
An lage
ä ter</w>
zuneh men</w>
zu m
volati lity</w>
vernünf tige</w>
ver körper
troub le</w>
tax es,</w>
secre t</w>
sch we
ra sche</w>
ple as
p ho
overwhel ming</w>
om e
o il,</w>
multilater alen</w>
inves tieren.</w>
imp in</w>
go tten</w>
gere chtfer
gegensei tig</w>
folg en.</w>
es c
ehemali ger</w>
convin ce</w>
contrac ts</w>
circumst ances,</w>
bin dung</w>
begrenz ten</w>
be wegen</w>
b agian</w>
assess ment</w>
abro ad.</w>
Wähl ern</w>
Wohl fahrts
War n
Verhalten s
Ungar n</w>
Serbi en</w>
Op tion</w>
O l
Mitglieds länder</w>
Leban on,</w>
Hoffn ungen</w>
Generalsek retär</w>
Erd be
Er wachsen
Dam als</w>
Bil dung,</w>
Bestreb ungen</w>
199 6</w>
л і
а қ
zu ver
zentr aler</w>
verursach ten</w>
versu s</w>
ver zerr
ungsp ak
uld n’t</w>
tä ten</w>
tho s</w>
th is
stän dige</w>
struc tur
st af
sh eit</w>
schw ör
res ent
posi tion.</w>
peri od,</w>
oil -
muslim ische</w>
measu red</w>
lern en</w>
kon sum
kom it
k oppel
judi ci
integra tion.</w>
in ische</w>
geri cht
gel d</w>
flexi bility</w>
ern de</w>
ent lang</w>
eig ent
effek tiver</w>
des ira
dar y</w>
ck er
cau se,</w>
bring t,</w>
befor e.</w>
ar i</w>
an scheinend</w>
an pass
amp# 160
all s</w>
affair s</w>
ad vice</w>
Zim bab
W illi
Ver lier
V ic
Uni on
Trump ,</w>
That cher</w>
O M
Misch ung</w>
Hinder nisse</w>
Ge win
En d
Compu ter
Ab stimmung</w>
A T
7 .
zahl reichen</w>
wis s</w>
weal thy</w>
ung )</w>
un eingeschränk
uli ert</w>
syri sche</w>
stell ten</w>
stei l</w>
steh ung</w>
st ung</w>
som eh
respon ding</w>
progres s.</w>
mis e</w>
ma .</w>
kün st
invest ors,</w>
ing ;</w>
in solv
hom e,</w>
gg un
de hn
de gra
de :</w>
coordin ated</w>
commun ity.</w>
c am
begrenz te</w>
ass as
are as,</w>
an th
a ?</w>
Zwischen zeit</w>
Vor her
Verb rech
US- Notenbank</w>
Sch reck
S A
M auer</w>
Konzent ration</w>
Konkur renz</w>
Kis sing
Kat eg
In land</w>
Gouver neur</w>
Ein wohner</w>
E is
Bundes staaten</w>
Betei lig
Ar t,</w>
Ac t</w>
übermäß ige</w>
Übergang s
z . 
ver länger
v ali
tor y,</w>
ti le</w>
teil en.</w>
su che</w>
stärk en,</w>
stieg s</w>
s ets</w>
r y
pu t,</w>
par ents</w>
ow ners</w>
olo gen</w>
mu si
mangel nde</w>
klar en</w>
influ ential</w>
i hn
höch st
her aus,</w>
geo politischen</w>
geling t,</w>
fail ures</w>
equ ality</w>
employ ment,</w>
disc uss</w>
dig n
contribu tions</w>
coh esi
bet ter.</w>
bei tragen.</w>
beg onnen</w>
be antwor
an ism</w>
abro ad</w>
Ziel en</w>
Zahlungs aus
Z wischen</w>
Wh ere</w>
Un less</w>
S pek
R as
P -
Kon g</w>
Kompromis s</w>
Koh le
Hen ry</w>
Führung sper
Exist enz</w>
Ch am
Bel ar
Aut os</w>
2 3</w>
über aus</w>
Über nahme</w>
zu tief
wür dig
wri te</w>
wh o,</w>
ver schi
unter schätz
un fair
u tili
ts un
to ,</w>
terri tory</w>
stopp ed</w>
so genannten</w>
sign al</w>
re vis
r ungen
qu ick</w>
pre pare</w>
ou tri
ninete enth</w>
mi schung</w>
medizin ischen</w>
lie gende</w>
leg t,</w>
la inn
konkur rier
kon tra
keines wegs</w>
inspi red</w>
im mun
harm ac
geld politischen</w>
fres h</w>
ex po
erziel en</w>
erwei sen.</w>
ergän z
efu g
discus sions</w>
cht es</w>
cau ght</w>
bru chs</w>
bre m
brauch t,</w>
ati ve
ang k
ang .</w>
an teil</w>
allmäh lich</w>
What ever</w>
Wes en</w>
Verfolg ung</w>
Ver sicher
U l
R and</w>
Qu ali
Protektion ismus</w>
Parlaments wahlen</w>
Par ty,</w>
Par adox
Man ager</w>
K openhagen</w>
J emen</w>
IS IS</w>
Gegen zug</w>
Ged ank
G eist
Fuß ball
F air
Erkenntn isse</w>
Bes teu
B efug
Ab sicht</w>
über nehmen,</w>
Ö konom</w>
z.  B.</w>
won der</w>
wirtschaf t.</w>
wes tern</w>
viel fäl
verbesser te</w>
ver haf
turmo il</w>
ter min
tack le</w>
t es.</w>
spiri t</w>
sper r
sovereign -
redu ziert</w>
redu zieren</w>
reason s.</w>
re ferend
qu alität</w>
p ed</w>
on y
o ther,</w>
mening kat
masyarak at</w>
l ah
intern e</w>
high ,</w>
h ed</w>
guarante es</w>
gi pf
gestell ten</w>
gest änd
ermöglich t,</w>
energi e</w>
diseas e,</w>
demon stri
cre ative</w>
compar able</w>
beige tragen</w>
ath er,</w>
asset s,</w>
ant rei
administra tion,</w>
Richt linien</w>
Ost ens</w>
O ze
Nachhal tigkeit</w>
Mensch en.</w>
Kon text</w>
Holocau st</w>
Fund ’s</w>
Er wä
Er be</w>
Depart ment</w>
Aus sch
A tl
9 -
6 5</w>
д ар
zufried enheit</w>
worldwi de.</w>
witz er
wi es</w>
w and</w>
vernicht ungs
us i</w>
unter min
u re
typ ical</w>
trä um
taxpay ers</w>
t ly,</w>
standar ds.</w>
she et</w>
ser ving</w>
schaff t</w>
res sourc
reduzier en.</w>
n s,</w>
mäß igen</w>
lich er,</w>
leg te</w>
kor rek
konzent riert</w>
islam istischen</w>
hund red</w>
high .</w>
groß em</w>
globaliz ation.</w>
geseh en.</w>
fu r</w>
found ation</w>
foreign- policy</w>
et en,</w>
et -
erwi esen</w>
ern ste</w>
em it
chines ischer</w>
c a.</w>
bil l</w>
be auf
aim s</w>
Ver bot</w>
Rum äni
Qu ellen</w>
Möglich keiten,</w>
Militär s</w>
K ing</w>
J in
Islam isten</w>
Funk tion
Demon stra
Ab schreck
- century</w>
с о
ж әне</w>
über hol
veröffentlich ten</w>
tief en</w>
terror ism.</w>
te te.</w>
spon sor
requ iring</w>
ra tions</w>
ra ble</w>
pla ys</w>
parti san</w>
need s.</w>
m es.</w>
lin e-
lich keit.</w>
kaw asan</w>
ground s</w>
globaliz ation,</w>
gemein schaft</w>
für chten,</w>
flu cht</w>
entgegen zu
durchschnit tlichen</w>
des hal
assas sin
ass ess</w>
Westeurop a</w>
Tur bul
System ,</w>
Scho cks</w>
S witzer
Off enheit</w>
Naz i</w>
N eben</w>
Mor al</w>
Men gen</w>
Lin ken</w>
Kur s
Kriegs verb
Kontro ll
Irel and</w>
Gr unde</w>
Gei st</w>
Er rungen
Ein satz
Berich te</w>
Bal kan</w>
BIP .</w>
Auf schwung</w>
Arz nei
An führer</w>
5 %.</w>
2 8</w>
Über leg
zu erst</w>
werden :</w>
wachst ums
vernach lässig
ver weiger
ung s</w>
unemploy ment.</w>
un le
tori entier
ti m</w>
simultane ously</w>
schwer er</w>
ri se,</w>
retire ment</w>
rei s</w>
pe di
nukle are</w>
mäch tigen</w>
mel alui</w>
le ments</w>
l ü
l u</w>
kommun istische</w>
hy per
gu ided</w>
gu ide</w>
gering ere</w>
geld politische</w>
engine ering</w>
eg al,</w>
earth qu
derzei tige</w>
declin ed</w>
de em
consump tion.</w>
auf genommen</w>
asset s.</w>
as ti
al ty</w>
Wur zel
W under
W en</w>
T ests</w>
Sch au
S ex
Nicht -
Mob il
L aden</w>
Kir che</w>
In dex</w>
Gen e</w>
Finan ce</w>
Erop a</w>
D an
C ro
Arabi a,</w>
8 00</w>
zi pl
verstärk en</w>
ungs -</w>
tiz ation</w>
surpri s
sud den</w>
ste ad
sinn voll
sh el
rü hr
re l</w>
posi tiv</w>
order ly</w>
kehr s
interes t.</w>
inn eren</w>
ing ?</w>
im balanc
her e
han den</w>
glau bt,</w>
fir st,</w>
f it</w>
einzi g</w>
dis appear
difficul ties</w>
deshal b,</w>
der -
cro ss</w>
besser es</w>
beschäf tigung</w>
b a
autorit ären</w>
acknow ledge</w>
Zu geständ
Nor mal
Kri e
Kan ada</w>
Inflations rate</w>
Her e,</w>
Auf rechter
Anpass ungen</w>
“ We</w>
w w
us an</w>
un konvention
u -
trig ger</w>
tiv es.</w>
tiv es,</w>
sum mer</w>
sub ven
staat s
speci fic
si en</w>
se m</w>
resear chers</w>
pursu it</w>
projec ted</w>
kol l</w>
journ alists</w>
invol vement</w>
heim ischen</w>
ha be,</w>
fo ster</w>
fe asi
expla ins</w>
et t</w>
ess ing</w>
employe es</w>
embrac ed</w>
eg al</w>
ed ?</w>
e de</w>
don e.</w>
dam aging</w>
com po
c ell
bilater ale</w>
band ingkan</w>
back ing</w>
annu ally</w>
R uh
Pres se</w>
Land .</w>
Ko i
J us
Inter pre
Ha ving</w>
Fur cht</w>
Flexi bilität</w>
Fein d</w>
Ebol a</w>
Arbei ter
ö se</w>
zutief st</w>
zusam men.</w>
valu able</w>
tran sport</w>
sor gt</w>
si ght</w>
sch en.</w>
ro tt</w>
ran ging</w>
pert umbuhan</w>
persist ent</w>
per si
mu ster</w>
mel t
makroökonom ische</w>
li ban
l .</w>
interven tions</w>
industri ellen</w>
in spec
hy dro
gosla wi
fuel ing</w>
fel low</w>
extern e</w>
erkann t</w>
enough .</w>
control ,</w>
coloni al</w>
cho sen</w>
bankrupt cy</w>
ar rest</w>
ank om
ang er
ab us
Wertpap iere</w>
V e
Rek ord
O thers</w>
Mich ael</w>
Jahr ,</w>
Gesamtn achfrage</w>
Expan sion</w>
E l</w>
Bur ma</w>
ör tlichen</w>
wes enheit</w>
w as
verfass ungs
ver trag
ver lassen.</w>
tig sten</w>
struktur ellen</w>
spiel en,</w>
skep tic
second -
rul es.</w>
recon cili
plausi ble</w>
ph y
p in
nach frage</w>
los es</w>
lei den.</w>
k ür
imperi al</w>
i ka</w>
i en,</w>
hol ders</w>
gewis s</w>
gener ous</w>
gef äl
four th</w>
form ul
feel ing</w>
extern en</w>
expres sion</w>
es t,</w>
elsewher e,</w>
di bandingkan</w>
de als</w>
consolid ation</w>
compani es.</w>
car efully</w>
car eful</w>
betra chten,</w>
be dar
assump tion</w>
Wor te</w>
Wirk samkeit</w>
Westjordan land</w>
Vol ati
Unabhängi g
S ever
Pre mi
Mittel ,</w>
Maß nahme</w>
Massen vernichtungs
Kri se,</w>
Ital y’s</w>
It ’s</w>
I ne
Fund ,</w>
Der eg
D schi
Clear ly,</w>
Charak ter</w>
Be wertung</w>
B U
Aufrechter haltung</w>
199 3</w>
( for</w>
$ 1</w>
ß t</w>
yn ard</w>
wh ite</w>
un willing</w>
tri b
tre as
tief greif
teu er</w>
system en</w>
surveill ance</w>
sur ve
stre ets</w>
st ated</w>
someh ow</w>
schaft spf
rän ken</w>
ro gan
resol ved</w>
repe ated</w>
profi tieren,</w>
produc es</w>
pl ent
p ed
ob il
lös ung</w>
lik eli
level s,</w>
ko wi
is sen</w>
is er</w>
fin ds</w>
fiel en</w>
el -
dist ur
den omin
dang ers</w>
civili ans</w>
aus lö
ari sierung</w>
approach .</w>
Wo ods</w>
Wirtschafts -</w>
Vorstell ungen</w>
V ater</w>
Steuer einnahmen</w>
St alin</w>
Sch lim
S äu
Prä senz</w>
Nobel prei
N ehmen</w>
Ma ynard</w>
Kom pon
K ELE
EZ B-
Defini tion</w>
Dec em
BER KELE
Ab bau</w>
8 0
$ 100</w>
ächt nis</w>
zwanz igsten</w>
ung er
underp inn
th row</w>
t arian</w>
strateg y,</w>
slow ly</w>
se y</w>
s le
ret ten</w>
re ality.</w>
prognosti zier
pro to
prev ented</w>
peac e,</w>
on s,</w>
nation ,</w>
mus ,</w>
min ded</w>
mem or
manag ers</w>
li an</w>
in jec
ier ende</w>
hy po
her .</w>
g ing.</w>
g ap
fund s,</w>
expres s</w>
e ).</w>
dok um
de man
d ung.</w>
c ell</w>
bureau cra
brid ge</w>
brech en.</w>
began n,</w>
at ur
as c
am .</w>
akzep tieren</w>
ak adem
a :</w>
Zy per
Viz ep
Verl auf</w>
Umstän de</w>
Tol er
Sy n
S an</w>
Regulierungs behörden</w>
O sama</w>
N eben
Lab or</w>
In teg
Im merhin</w>
Ide e,</w>
Her b
Ge ber
FOR D</w>
Er sten</w>
D ub
Be wer
Anti bio
An forderungen</w>
Ak tivisten</w>
A yat
A L
ü r</w>
Ö ko
zi r
y et,</w>
wirk lichen</w>
wes entlichen</w>
verpflich tet,</w>
uli erung</w>
ul dig
u el</w>
two- thirds</w>
tu i
tri eb</w>
tot alit
t ang
shap ed</w>
restor ing</w>
protec ted</w>
popul arity</w>
olog isch</w>
ol der</w>
nimm t.</w>
lo ser
lei der</w>
konserv ative</w>
kl en</w>
jeop ardi
invest or</w>
inc or
h aus</w>
gleich en.</w>
gew es
fa ire</w>
exper ti
divi sion</w>
displac ed</w>
desper ate</w>
deri v
da ya</w>
condi tions.</w>
colleagu es</w>
bra sili
br üst
bor ders.</w>
balanc e-
archit ec
anc en</w>
Ung lücklicherweise</w>
St unden</w>
Spe zi
Reb ellen</w>
Mechan ismus</w>
Lo y
Leben serwar
Gefäng nis</w>
Flüchtling sk
E L</w>
Di rec
D mit
Bei m</w>
Bank .</w>
B ab
Arbeitslosen quote</w>
Arbeits kräften</w>
Anpass ungs
200 7.</w>
( das</w>
„ Wir</w>
–  
z ins
work ers.</w>
war t</w>
t at
sub stitu
stell t.</w>
soli d</w>
sm art</w>
rel ation</w>
ph as
pe ak</w>
p essimis
ompo k</w>
off .</w>
o ’s</w>
o v
me l</w>
margin al</w>
lo an</w>
her e,</w>
gering eren</w>
ge gangen</w>
g lück
g liche</w>
g ing
fol ger
fail s</w>
el ement</w>
differ ent.</w>
correc t</w>
commun ism</w>
claim ing</w>
bri ef
break ing</w>
behavi or.</w>
aspec ts</w>
ar ismus</w>
all el
ahe ad.</w>
advoc ates</w>
adop ting</w>
WH O</w>
W eb</w>
Unterneh mer</w>
Süd afri
Sustain able</w>
Sunnit en</w>
Rol le.</w>
Regi on,</w>
O ver
Ma y
Lond on,</w>
L ar
L ager</w>
Je de</w>
Empf ehl
Element e</w>
Dok tr
Direkt investitionen</w>
C ra
Au gu
Arbeitsplat z
Al bani
8 ,
( P
&#160;&#160; &#160;&#160;
и т
алы қ</w>
zent ral
wirk en.</w>
wir ft</w>
vor ange
vi rus</w>
verlier en,</w>
the tic</w>
sug ges
strength ened</w>
si tes</w>
risi ken</w>
rig or
ret ten.</w>
program s,</w>
produc tion,</w>
ous ly.</w>
ob viously</w>
nar row
mo ves</w>
manip ulation</w>
ma gi
ligh ten
kö mm
in s,</w>
immen se</w>
harmac eu
happen ing</w>
gu t,</w>
ge fallen</w>
g un
fur ther.</w>
fried lichen</w>
fal se</w>
f i</w>
erziel en.</w>
equ ilibri
de te,</w>
cou ple</w>
conclu sion</w>
con tain
clear :</w>
ch ose</w>
centuri es</w>
bewus st,</w>
bes or
at ten</w>
argu ing</w>
ang i</w>
activ ely</w>
a o</w>
Ur teil</w>
Spar quote</w>
Se a</w>
Rohstoff preise</w>
P es
Off izi
Hei mat</w>
Haupt stadt</w>
G anz</w>
Fein de</w>
Fac ebo
Au fl
An gehöri
Ag ent
A ir
zw öl
y on
wis dom</w>
wir r
ver läss
unmittel baren</w>
uf er</w>
tra ined</w>
to ol</w>
sur round
steiger n.</w>
sh ,</w>
senti ments</w>
ri d</w>
re tro
pen didi
outri ght</w>
on s
ob serv
monopol y</w>
monit oring</w>
lo s.</w>
la in</w>
l ess.</w>
l end</w>
jung er</w>
inde x</w>
humanit äre</w>
hoh es</w>
ha z
gu il
geb enen</w>
ff ,</w>
evol ution</w>
erst mals</w>
er eig
ed )</w>
down turn</w>
cy ni
cou p</w>
bor ne</w>
bond s,</w>
ben en</w>
argu es</w>
ac cid
abo li
Z oll
Waffen still
Tai wan
T or
S ili
Lei t
Land es
Krä f
Kapital zu
Ein schätzung</w>
Di vi
D auer</w>
Australi en</w>
überzeu gt</w>
ö sen</w>
weal th
ver wurzel
v estitionen</w>
suppor ts</w>
sorg ungs
si al</w>
sem akin</w>
rel ease</w>
refus al</w>
recogni zing</w>
predic ted</w>
perform ing</w>
overwhel m
middle- income</w>
mel akukan</w>
meas ures,</w>
ma g,</w>
keseh atan</w>
jahr zehn
in folge</w>
ha be.</w>
gri ffen</w>
gew esen.</w>
gesam t
ges enkt</w>
für chten</w>
fl or
firm s,</w>
ff t,</w>
euro -
entsch lossen
emo tional</w>
ed ”</w>
don or</w>
dies mal</w>
contribut ing</w>
com promis
anti bio
Umstruk turierung</w>
Sou theast</w>
Sin d</w>
Sch u
Sch ri
NA FT
L ula</w>
Köni g</w>
K ann</w>
Ju goslawi
Investi tionen,</w>
Handels -</w>
Grund lagen</w>
Fried man</w>
Entwickl ung.</w>
C au
Befür chtungen</w>
Bank er</w>
Ag gres
8 .
4 5</w>
ü mer</w>
wünsch enswer
week ,</w>
wa iting</w>
ver stehen.</w>
ung el
tor d
tim es.</w>
suffici ently</w>
sti egen</w>
sprich t,</w>
sich er,</w>
sel ama</w>
schru mpf
sch ön
re conc
ran ts</w>
qu alit
prosper ity.</w>
poll u
op pres
month s.</w>
mag nit
lern en,</w>
konkre te</w>
irgend wie</w>
internation ales</w>
in tim
h id
grundle gend</w>
erfüll t</w>
ensei ts</w>
enk o</w>
end sten</w>
einfach er</w>
earn ings</w>
ear n</w>
constitu te</w>
con t
co ast
cent ri
car b
c ar</w>
betrach tet.</w>
been den.</w>
attemp ting</w>
along side</w>
aliz ation,</w>
ali sts,</w>
ab gesehen</w>
Wel che</w>
W iki
Ther ap
T rich
T aten</w>
Staat ,</w>
R -
Nach kriegs
N un,</w>
Maastri cht</w>
M ei
L es
K il
Invest or
G lück
Fre ed
Entscheidungs findung</w>
Ent deck
Bla ir
Au ß
Antwor ten</w>
30 .</w>
2 6</w>
1990 ’s</w>
10 -
zeig te</w>
wa ste</w>
verdi enen</w>
unterstütz ten</w>
trau mati
test ed</w>
t ut</w>
supp li
stan de</w>
se es</w>
s ed.</w>
republi kanischen</w>
reib ungen</w>
rei t
ran n
pas sen</w>
oblig ations</w>
o sten</w>
norm ale</w>
ne un
nation -
min bi
main tained</w>
ma sih</w>
lu kan</w>
leader ship,</w>
komplex e</w>
kl ing
judi cial</w>
incom e.</w>
gr and</w>
gend sten</w>
fang en,</w>
ex ists</w>
evi dent</w>
es ).</w>
dist res
depen den
con temporary</w>
c al,</w>
bewäl tigen</w>
be absich
at kan</w>
asi ve</w>
alisier te</w>
ag ger
adap t</w>
Vorgehens weise</w>
Sch mer
Pop ular
Pol and,</w>
Le e</w>
Jordani en</w>
Hö chst
Geschä ft</w>
Fuk us
F AR
EU- Mitgliedschaft</w>
Con sensus</w>
Beam ten</w>
Alex ander</w>
Ab schaffung</w>
us ers</w>
ur uh</w>
un realisti
tu re
tru g</w>
term s.</w>
tekn ologi</w>
stä tigkeit</w>
ster ed</w>
stand en.</w>
stab il</w>
specul ative</w>
scho ck
rul es,</w>
res or
religi öser</w>
reduc es</w>
princip al</w>
mal ari
m ung
m t,</w>
leist ungs
jo ining</w>
in sufficient</w>
improvem ents</w>
him ,</w>
her e.</w>
gradu al</w>
exce ed</w>
erinn ert</w>
enga h</w>
ein setz
de par
dauerhaf t</w>
d ate</w>
cy ber</w>
compens ation</w>
c ens
büro krati
beli ef
beding ten</w>
ausgesch lossen</w>
aufzubau en.</w>
ani a</w>
Wachstums raten</w>
Vertrau ens
UK ,</w>
Sum me</w>
Revolu tion,</w>
Proble m.</w>
Misstrau en</w>
Man chmal</w>
L ie
L ern
IMF ,</w>
Gen au
Gegenteil ,</w>
Ge o
For t
F ast</w>
E volu
D ür
Angebo ts
200 2,</w>
н е
á nam
zu frieden</w>
zahl en,</w>
wes entliche</w>
vers ag
um ph
ten ;</w>
sub sid
standar ds,</w>
spar tner</w>
si de,</w>
schn ellen</w>
s a</w>
ris h</w>
ref use</w>
presid ents</w>
prak tische</w>
peny ak
pembang unan</w>
pe as
pas st</w>
n av
lin k
ke tika</w>
imp liz
hum ans</w>
hl en</w>
hiel ten</w>
grow th
good s,</w>
g li
friend ly</w>
erwei sen</w>
er ung,</w>
determin ation</w>
den tin</w>
concent rated</w>
comp elling</w>
beschei den
as king</w>
argumentier t,</w>
Wor ten:</w>
West ’s</w>
Tay y
Som e
Singap ur</w>
Schl uss</w>
Risiko ,</w>
P harma
N ex
Kur dish</w>
Hän den</w>
Hoch schul
Gre en</w>
Geschwin digkeit</w>
F abri
Erklär ungen</w>
Ein richtung</w>
Dar fur</w>
C ho
Bil anz</w>
Bes etz
B lock
Aus gang
Aktion äre</w>
A brüst
A P
199 9,</w>
197 9</w>
zo gen.</w>
vertrau en</w>
v is</w>
unterstütz te</w>
unmittel bare</w>
tre ati
stell ungen</w>
st ün
so ar
se eing</w>
sc ru
rus si
reduc tions</w>
proc laim
p es
oursel ves</w>
ol a</w>
num erous</w>
ne d,</w>
multilater ale</w>
mitglie der</w>
min y
men d
mat ch</w>
low- carbon</w>
lich :</w>
legisl ative</w>
konzentrier en.</w>
ip el
inter medi
innov ation,</w>
impres sive</w>
gewach sen</w>
gesch ichte</w>
funk tion
ful .</w>
forder t,</w>
extre men</w>
es “</w>
erwar teten</w>
disp ute</w>
den y</w>
del eg
con firm
citiz en
c on</w>
bun al</w>
ble -
ay ed</w>
attitu des</w>
ak t</w>
ah -
Vor feld</w>
Tages ordnung</w>
Syri a.</w>
Stre ben</w>
Stand ard</w>
In seln</w>
I ,</w>
Her zen</w>
Guant ánam
Gel der</w>
Gazpro m</w>
Fried en
Ein heits
Com p
Bran chen</w>
Bis her</w>
Angelegen heit</w>
ä ck
zeichn ung</w>
vi ces</w>
urg ently</w>
unternom men</w>
under -
un it</w>
subven tionier
stem s</w>
sim pl
signifi kan
sever ely</w>
resol u
re ass
priori ties</w>
plent y</w>
plan et</w>
parti es.</w>
nö tige</w>
nachhal tiger</w>
mistak es</w>
kur s</w>
iz ation</w>
inform al</w>
h ub
ger er</w>
fac ts</w>
est aat
erreich te</w>
dist ant</w>
did n’t</w>
defic its,</w>
darstell t,</w>
confron tation</w>
commun ity,</w>
cent ers</w>
beweg ungen</w>
beeinflus sen</w>
bai k</w>
avo id
ari ties</w>
appro ved</w>
advant ages</w>
ado x</w>
Wel tord
Ver suche</w>
Ver m
Tuber kul
S ar
Parli ament
Off ice</w>
OEC D-
Jose ph</w>
In sel</w>
Hist or
Ernähr ung</w>
E cu
Commission ,</w>
Ausbil dungs
Ass embly</w>
An sätze</w>
1960 er</w>
ұ р
с і
Überprü fung</w>
zwei er</w>
wron g
ur bani
uni ons</w>
um welt
tra vel</w>
sin ken</w>
shif ted</w>
re al
presid ent.</w>
pl ing</w>
nachhal tiges</w>
länder n,</w>
l es
ist en,</w>
ira kische</w>
inf lic
im pover
human ity</w>
h edge</w>
ge geben.</w>
fried liche</w>
form ed</w>
finanzi ell</w>
experienc ing</w>
ex trac
enn achfrage</w>
enh anced</w>
e ager</w>
discrimin ation</w>
dis proportion
der n,</w>
depres sion</w>
defiz ite</w>
dauerhaf te</w>
cour ts</w>
c eil
bo y
bin ding</w>
bewe gen.</w>
at es.</w>
and en,</w>
agri culture</w>
activi sts</w>
Zahl ungen</w>
Volks ab
Vermögen s
Ver schi
Ver gewal
Ver f
Unterneh mer
Trans fer
TO K
Sever al</w>
Sch on</w>
Rec ep</w>
R ub
R ed
R ather,</w>
Premi er</w>
N ew
Myan mar</w>
Men sch</w>
Lis sab
L aw
Krank heits
Isol ation</w>
Constitu tion</w>
Beispiel sweise</w>
Beg renz
ал а
Öl -</w>
zunehmen der</w>
wirk ungs
wer ten</w>
w ol
visi ted</w>
ver mein
v ak
up akan</w>
tä glich</w>
transat lantic</w>
thodo x</w>
sm .</w>
secon dary</w>
sch eu
rein force</w>
ra mp
program s.</w>
persu ade</w>
nation .</w>
men ge</w>
mechan ismus</w>
m ari
l auf</w>
k ön
jü dischen</w>
j ar
it zen</w>
ir on
i d.</w>
hidu p</w>
hervor ru
handel t.</w>
h en,</w>
gerich tete</w>
explic itly</w>
expendi ture</w>
erinn ern,</w>
er tain</w>
en den,</w>
dis arm
del ever
de ta
child ren
centrali zed</w>
anci ent</w>
Wahrneh mung</w>
Vermögen sp
Tragö die</w>
Thak sin</w>
Tayy ip</w>
T raum</w>
St and</w>
Spar politik</w>
Shin zo</w>
Shangha i</w>
S eb
Regel ungen</w>
Pakist an
Ka ida</w>
Jah re.</w>
Hinder nis</w>
HIV -
HA G
Finanz en</w>
Erwer bs
Einwander ungs
Ein wohn
Effek te</w>
Clint on,</w>
Clau de</w>
Bag h
1980 ’s,</w>
öhn ung</w>
Äußer ungen</w>
zw ingen</w>
zahl t</w>
wes ens</w>
unterstütz t.</w>
tru m</w>
targe ting</w>
struktur en</w>
s --
revolu tion,</w>
prosper ous</w>
ol e
mäch tige</w>
mortg ages</w>
mo us
lo ve</w>
lau gh
latein amerikanischen</w>
konn ten,</w>
kom bin
janj ian</w>
jahr el
it ’s</w>
invol ves</w>
indic ate</w>
he ar</w>
gra de</w>
govern ance.</w>
getö tet</w>
gel ten</w>
forder n.</w>
expan sion
ex agger
entreprene ur
elec tron
disp utes</w>
dis i</w>
damp ak</w>
damali gen</w>
cons ul
con fer
comp eting</w>
cle an
bud get
be enden</w>
al u</w>
Zur ück
Y anu
Wirtschaf t.</w>
Wahl si
T ah
Schä den</w>
Re publik
Pub lik
Privati sierung</w>
N eg
Mob ilit
Kyo to-
Krieg ,</w>
Kor rek
K örper</w>
J inta
I rish</w>
Ham as,</w>
Com put
Catho lic</w>
Brüs sel</w>
Be en
Banken system</w>
B M
Ayat ollah</w>
Australi a,</w>
7 0
ös ung</w>
äh erung</w>
zul assen,</w>
wu chs</w>
toge ther,</w>
tent ang</w>
stag n
shif ts</w>
sh ing</w>
senk en,</w>
selb st,</w>
schlag en,</w>
schii tischen</w>
s lower</w>
ri sen</w>
res id
ration ale</w>
proz esses</w>
po l</w>
non eth
negoti ated</w>
n ?</w>
mass ac
lem bag
kov y
jen em</w>
interven e</w>
green house</w>
gi ble</w>
gesund heits
gest eiger
geförder t</w>
förder t</w>
erneuer bare</w>
enth äl
en dem</w>
em ent.</w>
conclu de</w>
charg ed</w>
bewer tung</w>
ar rogan
ap i</w>
ank apit
anj ut
ah kan</w>
acknow led
Yanu kovy
Vor herrschaft</w>
Um fel
Te am</w>
Steuer erhöhungen</w>
Multi later
Ko sten
K lar
G 20</w>
Frank lin</w>
Erkenntn is</w>
D ek
200 0
y wo
wor sen
wirk t</w>
wher e.</w>
ver blei
trage dy</w>
tox ic</w>
t ough
sti r
simp li
si t</w>
sharehol ders</w>
ser ta</w>
sei tdem</w>
s ank
re u
poli c
pic ture</w>
parlam entar
p ha
om eter</w>
min d
künf tige</w>
kämp ft</w>
klein eren</w>
k es</w>
k einem</w>
ich ten</w>
hosti le</w>
har ga</w>
gleich zei
ge kommen,</w>
ge kenn
foreign- exchange</w>
exerc is
ent ry</w>
ci ans</w>
ch ances</w>
bewäl tigen.</w>
be ’s</w>
b low
attitu de</w>
ac zy
Zw angs
Welthandel sorganis
Vor gehen</w>
Sit z</w>
Rak eten</w>
Q at
P en</w>
N eig
M andel
M AD
K aczy
K ab
Integ rit
Indonesi a,</w>
Hum ankapit
H at
Gef an
Finanzinstitu tionen</w>
Entschlossen heit</w>
Engli sh</w>
Eindämm ung</w>
Eigent um</w>
E ro
Do ha
D eng
Braz il’s</w>
BER LI
A C
A )</w>
201 2.</w>
$ 1
zu vor.</w>
zeu g</w>
wea ther</w>
v ill
though ,</w>
stre t
staat en,</w>
revi ve</w>
regul ated</w>
produk tiv
pres um
poor ly</w>
moun ting</w>
min ds</w>
länger fristi
letzten dlich</w>
land wirtschaftliche</w>
kom mer
it u,</w>
ing an</w>
hunder te</w>
gestal ten.</w>
freedom ,</w>
feat ures</w>
erreich t,</w>
entsch lossen</w>
enforc ement</w>
emis sions.</w>
elimin ating</w>
coordin ation</w>
co st-
bond s.</w>
bli eben</w>
bil den.</w>
bevor stehenden</w>
besteh en.</w>
be fri
an other.</w>
ag on
Vor berei
Stam mes
Staats ausgaben</w>
St an
Schrö der</w>
Oli gar
Nation en,</w>
Mach t.</w>
L et</w>
L auf</w>
K atastrop
Janu kowi
Israeli -
Im port
Grün de,</w>
Griechen land,</w>
Gefühl ,</w>
F inn
EN HAG
Bü hne</w>
B ack</w>
Auf sicht</w>
Arbeitsplat z</w>
� �
Öl prei
Ägyp tens</w>
ver st
unterschied licher</w>
tsch öpf
ter ia</w>
symp ath
sunni tischen</w>
si dentin</w>
schwei gen</w>
sa ved</w>
ru m
regul ar</w>
proper ly</w>
program ms</w>
pri or</w>
obstac les</w>
n 't</w>
monet ar
mer upakan</w>
men gen
makroökonom ischen</w>
m al,</w>
lower ing</w>
low est</w>
le bt</w>
jud ge</w>
inves tiert</w>
intro duce</w>
interpre tation</w>
inspi rier
industr y,</w>
h eben</w>
gran ted</w>
gel der</w>
ful fill</w>
fo unded</w>
erle ben</w>
el ed</w>
destruc tive</w>
coll ater
c rop
book s</w>
ben e</w>
aus gelöst</w>
ation en.</w>
ar k</w>
ag ar</w>
Vizep räsid
Vers äum
Ukraini an</w>
Strategi e,</w>
Sicherheits rates</w>
Schulden er
S we
R am
Proz esse</w>
O x
McC ain</w>
MAD RI
Jus tiz
Jed es</w>
Itali en,</w>
Islam .</w>
Extremis mus</w>
Ex eku
Erfolg s
Er hol
CI A</w>
C C</w>
Been digung</w>
Americ ans,</w>
2 50</w>
äl ter</w>
zieh t</w>
und .</w>
ter masuk</w>
staf f</w>
shad ow</w>
sek ar
peripher y</w>
no by
ment -
meningkat kan</w>
m ers</w>
lu x
lo y</w>
lin ge</w>
jud ges</w>
inten se</w>
hoch wer
gi ant</w>
geschä ft</w>
gen eri
fähi ge</w>
fa ther</w>
expla ined</w>
er a,</w>
ent täusch
ent standen</w>
e be</w>
dien ste</w>
de tec
c ron
blin d</w>
berücksich tigt</w>
aver age,</w>
automati sch</w>
aus gehen,</w>
arran ge
al e,</w>
aband oned</w>
Zu griff</w>
Wurzel n</w>
Un fähigkeit</w>
Sim bab
Rol le,</w>
Rei se</w>
Pro jec
Mediterran ean</w>
L ande</w>
J a,</w>
I hnen</w>
H eil
Größ en
Gri ff</w>
Geb äu
Cal der
Bevölker ungen</w>
201 1.</w>
ды ң</w>
zugr un
z. B.</w>
weapon s,</w>
warm ing.</w>
verfüg baren</w>
ver nich
valu es,</w>
un t</w>
th res
sup pres
schwer ,</w>
sch e
satis fac
ro ll</w>
risi ko
public- sector</w>
proc edu
peac ek
ober ste</w>
l o</w>
ka tho
k us</w>
k ow
justi fied</w>
israeli sch-
ir relev
ing er</w>
inform ed</w>
inequ ality,</w>
hoch entwickelten</w>
hier arch
ha sil</w>
group s.</w>
government -
finan ce,</w>
erklär te,</w>
erforder lich.</w>
ens i</w>
en ever</w>
destro yed</w>
der selben</w>
deman ded</w>
defini tion</w>
ch eck
bi d</w>
benef its,</w>
behaup ten</w>
aus sichten</w>
anim al</w>
alitä t,</w>
ak ,</w>
agreem ent.</w>
ab use</w>
Z ehn
Wieder belebung</w>
Sp r
Soll ten</w>
Sen at</w>
Sec re
Reform en,</w>
Partner ship</w>
NATO ,</w>
Kre bs
Konsu menten</w>
Konserv ativen</w>
Itali ens</w>
HIV/ AIDS</w>
Fok us</w>
C O</w>
Ber ater</w>
Arabi en</w>
6 -
- market</w>
қ т
с ы</w>
·        </w>
zwei t
zeich nete</w>
year- old</w>
vor handen</w>
von einander</w>
vi sion
verur teilt</w>
verschied en
ver brauch
unk now
under scor
un zäh
ts am
suff er
stal gi
sm ar
sm all
schl uss
r are</w>
performan ce.</w>
per lu</w>
pay ment</w>
no tic
morali sch</w>
medi a,</w>
mas siv</w>
mark s</w>
man a</w>
ma sch
low- income</w>
lo o
kep ada</w>
k ek
isti sch</w>
isch em</w>
implic it</w>
ill -
ignor iert</w>
heb en.</w>
ha w
grün e</w>
gi gan
gest ürz
gerich tet</w>
ge hab
fra gt</w>
for um</w>
fass en.</w>
em bo
ein geb
dustri e</w>
der n.</w>
den jenigen</w>
de ad</w>
cur e</w>
const ant</w>
challeng ing</w>
ber einig
beeinflus st</w>
b or</w>
andl ung</w>
an gewand
al ’s</w>
al ami</w>
Wor l
Vor der
Turbul enzen</w>
Teu fel
Te a</w>
T ausende</w>
Sozialleist ungen</w>
Sili con</w>
Sen ate</w>
Preis stabilität</w>
Nigeri a,</w>
NGO s</w>
N on-
Mar gar
Japan er</w>
In ten
Häus er
Hu go</w>
Eurozon e,</w>
Elek tri
Cri me
Aus gang</w>
Aus brei
Ass ad’s</w>
Armu t,</w>
.. .</w>
% )</w>
ғ ан
г е</w>
zieh ung</w>
wom en.</w>
wen dungen</w>
volati le</w>
veröffentlich t</w>
verkauf en</w>
val .</w>
ur or
ter te</w>
stat t.</w>
sp unk
smo o
sich ern,</w>
seem s,</w>
schlu g</w>
rich est</w>
reput ation</w>
rel ativen</w>
re m
ran t</w>
psych iatri
perusah aan</w>
p harmaceu
ner v
mono poli
klein ere</w>
kin an</w>
ke ep
in struc
im migra
hei ten.</w>
government s’</w>
ge kommen.</w>
fäl lig</w>
fer enzen</w>
fem in
enz ,</w>
eng ünsti
du s</w>
desper ately</w>
damali ge</w>
d ent
cul ture.</w>
construc tive</w>
con sen
comp ati
campaig n,</w>
brü che</w>
beginn t</w>
aspec t</w>
akh ir
accept ance</w>
Wi thin</w>
Terroran schläge</w>
Syri ens</w>
Still stand</w>
Schwar z
Repres ent
Rei ch</w>
R ums
Netany ahu</w>
Nation alen</w>
Lis bon</w>
Kri terien</w>
Ho s
Haushalts politik</w>
Frei heit,</w>
Finanzinstitu te</w>
Fehl en</w>
F all,</w>
Di lemma</w>
Comput er</w>
BERKELE Y</w>
Atl anti
An schläge</w>
Agen cy</w>
A li
$ 3
ä ischen</w>
vor teil
ver spra
un möglich,</w>
th at
tenden cy</w>
strö me</w>
ste te</w>
st ück
st ation
st a</w>
recei ving</w>
reagi eren,</w>
rapi de</w>
protection ist</w>
p ron
openn ess</w>
no -
nation alisti
motiv ated</w>
moment um</w>
metho ds</w>
mas a</w>
m as</w>
lok aler</w>
lag erung</w>
kost engünsti
ist s.</w>
inflation -
import ant.</w>
igh t
hasil kan</w>
greif en,</w>
gen ous</w>
func tional</w>
forder te</w>
fan ati
ergeb nisse</w>
erfüll en.</w>
er ho
emp i
ein schränk
domin ate</w>
divi sions</w>
defic its.</w>
d ’s</w>
c a</w>
bro ken</w>
blo ße</w>
began nen</w>
außer ord
auszu wei
aufzubau en,</w>
ag ent
acceler ate</w>
Xia op
Wider stands
W ut</w>
Vor bild</w>
Rett ungspak
Par ti
Op tionen</w>
On line-
Ober sten</w>
Nich ts</w>
Mexi can</w>
Medi zin</w>
Kö pf
Kon solidi
K ari
Hez boll
Herb st</w>
Gemein den</w>
Fall .</w>
Euro ,</w>
Er haltung</w>
Ch ile,</w>
Arbeit geber</w>
A le
200 1.</w>
( was</w>
“ )</w>
с к
zi ellen</w>
vi ously,</w>
verschied ener</w>
un ab
tal king</w>
stre et</w>
sto cks</w>
sti f
sprech en.</w>
sp ur
sen se.</w>
se ffek
reagi eren.</w>
program men</w>
pro t
power s,</w>
perspec tive,</w>
per v
pas sen
orientier te</w>
offic e,</w>
nah men
n s.</w>
mäß ige</w>
mo bility</w>
low ,</w>
lei den,</w>
lau tet,</w>
kor rigi
kauf en,</w>
k i
iso lier
imper ative</w>
ik lim
hal ben</w>
h es
h as,</w>
gewal tigen</w>
frei er</w>
exc ell
event u
euro ’s</w>
el le,</w>
distinc t</w>
d ently</w>
bemüh ungen</w>
be harr
avo iding</w>
ausgedrück t:</w>
analy sts</w>
an genommen</w>
altern atives</w>
accoun table</w>
Wohl er
Scho ol</w>
Schl uss,</w>
Ro go
Repräsent anten
Region al
Produ zenten</w>
Poli t
Phänom en</w>
Obam a-
Nordkore as</w>
Ni edri
N either</w>
Moment an</w>
Kandid at</w>
K im
Justi z</w>
Gold man</w>
Fried ens</w>
Fir ma</w>
Finanz -</w>
Das selbe</w>
D ,</w>
Con vention</w>
C el
Ab zug</w>
7 00</w>
über mäßig</w>
öl le</w>
Überein kommen</w>
  Milliarden</w>
zurückzu führen</w>
war ten</w>
verkauf t</w>
ung es
un geh
tradition ally</w>
ter ly</w>
sätz en</w>
surv ey</w>
schw ing
sch ein</w>
ra tion,</w>
ob tain</w>
no ted</w>
neut rali
lin ed</w>
lei che</w>
kri sen</w>
höh ungen</w>
h it
gest altung</w>
fis h</w>
export s.</w>
energ y.</w>
en "</w>
du p
don ors</w>
dis man
den tial</w>
deb ate.</w>
cri ses.</w>
bi as
bezieh ung</w>
beeinflus sen.</w>
all es,</w>
all ed</w>
Zivili s
St ol
Roosevel t</w>
Res ist
Quali fik
Populi smus</w>
Plat t
Pakist an.</w>
P aul
Nix on</w>
Meinungsum fragen</w>
M ain
Kultur en</w>
Kri min
Kompromis se</w>
Hos ni</w>
Gewin n</w>
E ,</w>
Diplom aten</w>
Ch en</w>
Brasili ens</w>
Ab sichten</w>
wichtig es</w>
volum e</w>
veröffentlich te</w>
verschär ft</w>
ver sicherung</w>
v es
unterstütz t,</w>
tion ally</w>
t elling</w>
strik es</w>
si tz</w>
sem ua</w>
se x</w>
s ung</w>
ren der</w>
reco ver</w>
pattern s</w>
ok ing</w>
lau re
l eng
kore anische</w>
kel anjut
jahrzehn tel
innov ations</w>
human- rights</w>
help .</w>
guarante ed</w>
gefähr det</w>
ge fallen.</w>
fi x</w>
fair ly</w>
euro .</w>
enh ancing</w>
en force</w>
declin e.</w>
decision s.</w>
de fici
consider ing</w>
car s</w>
busines s.</w>
bewaff neten</w>
best enfalls</w>
bes teu
bel um</w>
ausgeh enden</w>
anti- S
akzep tieren.</w>
adv anc
Wes tern
Völk er
Volk es</w>
T B
Sy mbo
Sp altung</w>
Serbi a</w>
Schlag zei
Russ land
Pani k</w>
N ap
Mit arbei
Miss brauch</w>
Margar et</w>
Krä ften</w>
J an
Indonesi a</w>
Herr scher</w>
Fak ten</w>
Entwicklungs ziele</w>
E mer
Constitu tional</w>
C hr
Bus iness</w>
Beruf s
Aus schuss</w>
Arbeits kräf
Ara bs</w>
Ara ber</w>
Ann an</w>
1980 ’s</w>
Über zeugung</w>
wer fen,</w>
vi cious</w>
verbrei tet</w>
unvermei d
unc ertain</w>
ukra inischen</w>
themsel ves,</w>
t .“</w>
so oner</w>
situ ation.</w>
sel uruh</w>
schlä gt</w>
ri can
resul ts.</w>
qu est</w>
politici ans,</w>
p ac
or e,</w>
nor ms</w>
noneth eless</w>
net .</w>
necess ary,</w>
mu ch-
mon arch
manage ment,</w>
ling k
lei te</w>
klas se</w>
k kan</w>
j u</w>
intern a
in frastruk
gestell te</w>
geschaff en,</w>
fu sion</w>
fil m</w>
feat ure</w>
famili ar</w>
fam ously</w>
experi ences</w>
erwi es</w>
erkenn t</w>
emis i</w>
ed el
discover ed</w>
dis pos
defin iert</w>
dah in
d h
conver gence</w>
con ten
commun it
com e,</w>
car a</w>
cap ai</w>
blas en</w>
blam ed</w>
bene fici
b ach
assum ing</w>
al- Assad</w>
Zinss atz</w>
Ti bet
T renn
S ier
Ro yal</w>
Regier ung.</w>
Re por
R ic
R ab
MADRI D</w>
M eine</w>
Islam ,</w>
Geschich ten</w>
Gazast reifen</w>
Ein es</w>
Behaup tung</w>
B rück
Associ ation</w>
An fang
Ab wärts
1, 5</w>
übernom men</w>
zo g</w>
versuch te</w>
ver ändern</w>
ven ess</w>
unter mau
uni ver
um ulation</w>
ul e</w>
trit t,</w>
tra in</w>
threat .</w>
ster ing</w>
st :</w>
spek tak
sicher er</w>
sh il
separ ati
rus sischer</w>
reich ung</w>
real- estate</w>
ra tions
r and
ques tion.</w>
nachhal tig</w>
n esses</w>
mer en</w>
manip ulier
m on</w>
langfristi ger</w>
k eu
k -
in sp
in mitten</w>
ig a</w>
hl ung</w>
gewiss er</w>
ger weise</w>
ge teil
for d</w>
fo od,</w>
fläch e</w>
erhöh ten</w>
er geben</w>
enem y</w>
effec t,</w>
e ),</w>
doub ts</w>
do om
difficul ty</w>
des i
deem ed</w>
da .</w>
cheap er</w>
c rus
busines s,</w>
bestim men</w>
außen politischen</w>
ab und
Zi on
Stad t
St o
Sonn en
Prozent punkte</w>
O ttom
Lob by
Lek tion</w>
Kranken häus
He gemon
Gro up</w>
Gesundheits wesen</w>
Dom ini
Demokrati sierung</w>
Bürger mei
Ausbrei tung</w>
Asy l
Ander nfalls</w>
An gaben</w>
Again st</w>
? “</w>
z en,</w>
ver zöger
v a</w>
ursprüng lichen</w>
ti gem</w>
tatsäch lichen</w>
stur z</w>
stat es
star ts</w>
spezi elle</w>
sp ur</w>
ser ves</w>
sen ding</w>
sei en,</w>
se :</w>
schritt weise</w>
rel ations.</w>
regier ungs
reas on,</w>
re chen</w>
peri od.</w>
p it
p he
oni a</w>
market -
li ziert</w>
kur se</w>
jetz t,</w>
im prison
ier enden</w>
her kömm
gren zen</w>
gel eist
erziel en,</w>
er ror
enth alten</w>
ent gegen</w>
einig es</w>
ein zul
dro hen</w>
dra ft</w>
der schaft</w>
depreci ation</w>
bul an</w>
beschränk ungen</w>
be kräf
bark ei
ar e.</w>
al one,</w>
acc ord
W äre</w>
Vor tei
Vi rus</w>
Thir d</w>
T eh
Schw ank
Pat ri
P ipel
Netanj ahu</w>
Korrup tions
Konjunk tur</w>
Gaul le</w>
Freed om</w>
Ent stehung</w>
E ri
Co operation</w>
Blas e</w>
Berich ter
BERLI N</w>
B inn
Aben om
Ab kommens</w>
- th
( wenn</w>
( such</w>
“ I</w>
überrasch end</w>
über tragen</w>
ä ssi
zuver lässi
veränder n.</w>
verstärk en.</w>
verbrei teten</w>
un conventional</w>
tl ing</w>
ti sm</w>
ti ge,</w>
ter er</w>
tel ef
te ?</w>
stag nation</w>
so on.</w>
san it
s '</w>
rein forced</w>
recogni zes</w>
profi tiert</w>
populisti schen</w>
pal ing</w>
nö tig,</w>
negoti ations.</w>
natur ally</w>
nation alistischen</w>
mig h
meet ings</w>
mat ure</w>
kan er</w>
k äufe</w>
juri s
jen es</w>
in er
ihr erseits</w>
hin .</w>
good s.</w>
fre e
fif th</w>
et was,</w>
erwar tete</w>
entreprene urs</w>
electri c</w>
diseas e.</w>
diesel ben</w>
deep ening</w>
dan n,</w>
com mission
cha os</w>
cas e.</w>
car d</w>
beson der
ber echen
be halten.</w>
aufgeb aut</w>
accep ting</w>
Versuch ung</w>
Ver fahr
Un zufriedenheit</w>
USS EL
Th is,</w>
So hn</w>
Pro tec
P ada</w>
Other wise,</w>
Neu aus
M DG
Li u</w>
Lei d</w>
Konzern e</w>
Industri estaat
Gu atem
Gest altung</w>
Ergeb nissen</w>
BR USSEL
Ang st,</w>
An steck
Ahmadinedsch ad</w>
к і
über tri
à -
zo gen,</w>
y ).</w>
wom it</w>
wahrschein lich,</w>
w eck
verdi ent</w>
ul tra-
tu juan</w>
troub led</w>
trib al</w>
ti me
ti ed</w>
t “.</w>
such en,</w>
stän den</w>
stud ent</w>
spektak ul
soci al,</w>
si s,</w>
regul arly</w>
rech t,</w>
qu ellen</w>
prä z
prosec ut
peop les</w>
par tial</w>
mom ent,</w>
li sten</w>
lar ge,</w>
kollek tive</w>
kenn en</w>
kar ena</w>
k ip
integra tion,</w>
ha il</w>
gew onnen</w>
gesch lossen</w>
f e,</w>
doctr ine</w>
doc tors</w>
confron ted</w>
coher ent</w>
ch ain</w>
bit ter</w>
bil den,</w>
betra cht</w>
bekämpf en,</w>
ay s,</w>
arg ent
an forderungen</w>
W here
Syri en,</w>
So ft
Sier ra</w>
Schluss folger
Sch atten</w>
R M
Produk t</w>
Pres se
Partner schaften</w>
Part y’s</w>
Oper ationen</w>
Oper ation</w>
Lebenserwar tung</w>
L ast
Jean- Claude</w>
I stan
Gor e</w>
Führungsper sön
Empf än
D rei
B erg
An betracht</w>
7 5%</w>
198 9,</w>
( „
( obwohl</w>
( mit</w>
” )</w>
ы қ</w>
ün dung</w>
zw in
zivil en</w>
wor thy</w>
versch wen
valu e.</w>
v an
un .</w>
tri als</w>
tn äck
t .”</w>
t ),</w>
sustain ability</w>
stru ck</w>
sovereign- debt</w>
sorgfäl tig</w>
so f
si s.</w>
seh ingga</w>
schen ko</w>
sch ad
s wi
ru le,</w>
re member
on es.</w>
necess ary.</w>
li tten</w>
kontin u
jahr es
isol ated</w>
infl ations
illi ber
gelern t</w>
fe ed</w>
far mer
elec t</w>
e ded</w>
doll ar,</w>
defic it.</w>
ci ties,</w>
chil l</w>
bie tet,</w>
best re
berei tschaft</w>
bekann t.</w>
bedeut sam
bar di
awar eness</w>
alleg ed</w>
ab er,</w>
Wohn ungs
Volati lität</w>
Veröffentlich ung</w>
Ver haf
Unterstütz er</w>
Um fragen</w>
Ul tim
U ri
Teil nehmer</w>
T am
Symp tom
Septem ber,</w>
S ha
Medwede w</w>
Medikam enten</w>
Ma j
K ün
Herausforder ungen,</w>
Gesell schaft,</w>
G am
For scher</w>
Fo od</w>
F our
Er mor
Entscheidung strä
C redi
Besetz ung</w>
Au ster
9 0
z e.</w>
wel ches</w>
verfü gt,</w>
tra de-
t rat
sü dlichen</w>
surround ing</w>
succ ess,</w>
ster b
sta b</w>
st one</w>
soli de</w>
represent ative</w>
reci pi
prison ers</w>
posi tion,</w>
per form</w>
organiz ations,</w>
ordn ungs
on s.</w>
neg ativ</w>
mensch licher</w>
kl ar.</w>
juris dic
ignor ed</w>
gil t,</w>
geänder t</w>
gestärk t</w>
genann t</w>
ga be
fond s,</w>
fol lower
f et
export s,</w>
enemi es</w>
en ger</w>
elek tron
einfach ,</w>
eigen er</w>
effectiv e.</w>
disastro us</w>
dienstleist ungen</w>
defic it,</w>
de voted</w>
cra sh</w>
consump tion,</w>
char ism
ch i
ch est
car e.</w>
capit alist</w>
bureau cratic</w>
bl ack
b ung</w>
at ing.</w>
at -
anzu pass
anerkann t</w>
ad ding</w>
Where as</w>
Vor schriften</w>
Ver schwör
Ver schul
Urspr ung</w>
S ob
Prä zed
Por t
Pf und</w>
Ost asien</w>
Infrastruktur ,</w>
H ass
G utes</w>
Dänem ark</w>
Devisen reserven</w>
D o</w>
D EL
Ber ücksich
Ann äherung</w>
Alli ance</w>
т и
к он
д і</w>
ägyp tische</w>
z ed.</w>
versch lim
valu ed</w>
tri umph
t y-
stat ements</w>
st rom</w>
sp l
she ets</w>
schem e</w>
sah en</w>
res ur
ren ce</w>
regier ungen</w>
produk tive</w>
prevail ing</w>
person en</w>
pas siert,</w>
nam un</w>
mobili ze</w>
men capai</w>
magnit ude</w>
lass ung</w>
labor- market</w>
l y-
kip un</w>
induc ed</w>
h ingga</w>
go ,</w>
gen d,</w>
geisti gen</w>
führ ender</w>
erzeu gt</w>
ergreif en,</w>
er te,</w>
er end</w>
du a</w>
dil akukan</w>
dauerhaf ten</w>
d. h.</w>
comm and</w>
co inci
brei ter</w>
air o</w>
ad mi
Zus ätz
Z eu
Völk er</w>
U ru
Sci ence</w>
Regi on.</w>
Par k</w>
Mon opol
Milli on
Kham enei</w>
Immobili en</w>
IWF ,</w>
Har d
Gleich gewich
Gesundheits für
Gefü hle</w>
Frei heiten</w>
ENHAG EN</w>
De al</w>
Büro kratie</w>
Brexit -
Besteu erung</w>
Beam te</w>
BRUSSEL S</w>
BIP ,</w>
Aus sage</w>
Auf gabe,</w>
5 %,</w>
zwei ter</w>
war d
vis -
vi l</w>
u red</w>
t ung
sh .</w>
schaf ten.</w>
s ser
rel ying</w>
ra b
r y.</w>
politi schem</w>
offici ally</w>
net work
mö chten</w>
mur der</w>
mi x</w>
lik ely,</w>
lich ung</w>
le hr
kti v</w>
kam .</w>
inten tion</w>
in ’s</w>
im possible.</w>
il ai</w>
hop ed</w>
him a</w>
herbeizu führen.</w>
heb en,</w>
h ence</w>
gesch wäch
gegrün det</w>
for tschrit
folg te</w>
finanzier te</w>
ex -
ev il
et s.</w>
es te</w>
erhöh te</w>
er setzt</w>
ent ge
effek tiven</w>
e 's</w>
dro pped</w>
deta illi
democra cy
corrup tion.</w>
con gres
citizens ’</w>
c o</w>
bl en</w>
besser ,</w>
beschränk t.</w>
be cause,</w>
auf s</w>
atmo sphere</w>
asi -
as por
akzep tiert</w>
ak tion</w>
Vorsitz ende</w>
Ver langsam
Südo st
Strat eg
Präzed enz
Proz esses</w>
P eter</w>
Mut ter</w>
Moham med</w>
Milliar den
Liby a,</w>
Letz tlich</w>
Kre bs</w>
Jahrhunder te</w>
Jahr .</w>
Infl ation
H av
Gleich heit</w>
Gegen den</w>
Frühl ing</w>
For mu
Finanz ministerium</w>
Effek tivität</w>
An sprüche</w>
Ab bas
A ma
199 7,</w>
z ellen</w>
wur de
verstärk te</w>
versch limm
ver knüpf
ve au
unter zeichn
under take</w>
un trag
un fair</w>
tig keit,</w>
tic .</w>
ti ,</w>
th or
teil ,</w>
te t:</w>
tatsäch liche</w>
spo ke</w>
shor e</w>
ru in
res um
potenzi al</w>
pat ri
out look</w>
or ders</w>
nul l</w>
man eu
lo s,</w>
likeli hood</w>
influ ence.</w>
[...]
